unsigned char model_tflite[] = {
  0x20, 0x00, 0x00, 0x00, 0x54, 0x46, 0x4c, 0x33, 0x00, 0x00, 0x00, 0x00,
  0x14, 0x00, 0x20, 0x00, 0x1c, 0x00, 0x18, 0x00, 0x14, 0x00, 0x10, 0x00,
  0x0c, 0x00, 0x00, 0x00, 0x08, 0x00, 0x04, 0x00, 0x14, 0x00, 0x00, 0x00,
  0x1c, 0x00, 0x00, 0x00, 0x8c, 0x00, 0x00, 0x00, 0xe4, 0x00, 0x00, 0x00,
  0x98, 0x1e, 0x00, 0x00, 0xa8, 0x1e, 0x00, 0x00, 0x70, 0x3e, 0x00, 0x00,
  0x03, 0x00, 0x00, 0x00, 0x01, 0x00, 0x00, 0x00, 0x04, 0x00, 0x00, 0x00,
  0x22, 0xdd, 0xff, 0xff, 0x0c, 0x00, 0x00, 0x00, 0x1c, 0x00, 0x00, 0x00,
  0x3c, 0x00, 0x00, 0x00, 0x0f, 0x00, 0x00, 0x00, 0x73, 0x65, 0x72, 0x76,
  0x69, 0x6e, 0x67, 0x5f, 0x64, 0x65, 0x66, 0x61, 0x75, 0x6c, 0x74, 0x00,
  0x01, 0x00, 0x00, 0x00, 0x04, 0x00, 0x00, 0x00, 0x90, 0xff, 0xff, 0xff,
  0x28, 0x00, 0x00, 0x00, 0x04, 0x00, 0x00, 0x00, 0x08, 0x00, 0x00, 0x00,
  0x6f, 0x75, 0x74, 0x70, 0x75, 0x74, 0x5f, 0x30, 0x00, 0x00, 0x00, 0x00,
  0x01, 0x00, 0x00, 0x00, 0x04, 0x00, 0x00, 0x00, 0x2a, 0xdd, 0xff, 0xff,
  0x04, 0x00, 0x00, 0x00, 0x0c, 0x00, 0x00, 0x00, 0x6b, 0x65, 0x72, 0x61,
  0x73, 0x5f, 0x74, 0x65, 0x6e, 0x73, 0x6f, 0x72, 0x00, 0x00, 0x00, 0x00,
  0x02, 0x00, 0x00, 0x00, 0x34, 0x00, 0x00, 0x00, 0x04, 0x00, 0x00, 0x00,
  0xdc, 0xff, 0xff, 0xff, 0x2b, 0x00, 0x00, 0x00, 0x04, 0x00, 0x00, 0x00,
  0x13, 0x00, 0x00, 0x00, 0x43, 0x4f, 0x4e, 0x56, 0x45, 0x52, 0x53, 0x49,
  0x4f, 0x4e, 0x5f, 0x4d, 0x45, 0x54, 0x41, 0x44, 0x41, 0x54, 0x41, 0x00,
  0x08, 0x00, 0x0c, 0x00, 0x08, 0x00, 0x04, 0x00, 0x08, 0x00, 0x00, 0x00,
  0x2a, 0x00, 0x00, 0x00, 0x04, 0x00, 0x00, 0x00, 0x13, 0x00, 0x00, 0x00,
  0x6d, 0x69, 0x6e, 0x5f, 0x72, 0x75, 0x6e, 0x74, 0x69, 0x6d, 0x65, 0x5f,
  0x76, 0x65, 0x72, 0x73, 0x69, 0x6f, 0x6e, 0x00, 0x2c, 0x00, 0x00, 0x00,
  0xb0, 0x1d, 0x00, 0x00, 0xa8, 0x1d, 0x00, 0x00, 0x94, 0x1d, 0x00, 0x00,
  0x80, 0x1d, 0x00, 0x00, 0x6c, 0x1d, 0x00, 0x00, 0x64, 0x1d, 0x00, 0x00,
  0x50, 0x1d, 0x00, 0x00, 0x34, 0x1d, 0x00, 0x00, 0x18, 0x1d, 0x00, 0x00,
  0xfc, 0x1c, 0x00, 0x00, 0xe0, 0x1c, 0x00, 0x00, 0xc4, 0x1c, 0x00, 0x00,
  0x94, 0x1c, 0x00, 0x00, 0x84, 0x1b, 0x00, 0x00, 0xf4, 0x1a, 0x00, 0x00,
  0xe4, 0x0a, 0x00, 0x00, 0x94, 0x0a, 0x00, 0x00, 0x84, 0x02, 0x00, 0x00,
  0x54, 0x02, 0x00, 0x00, 0x44, 0x01, 0x00, 0x00, 0x3c, 0x01, 0x00, 0x00,
  0x34, 0x01, 0x00, 0x00, 0x2c, 0x01, 0x00, 0x00, 0x24, 0x01, 0x00, 0x00,
  0x1c, 0x01, 0x00, 0x00, 0x14, 0x01, 0x00, 0x00, 0x0c, 0x01, 0x00, 0x00,
  0x04, 0x01, 0x00, 0x00, 0xfc, 0x00, 0x00, 0x00, 0xf4, 0x00, 0x00, 0x00,
  0xec, 0x00, 0x00, 0x00, 0xe4, 0x00, 0x00, 0x00, 0xdc, 0x00, 0x00, 0x00,
  0xd4, 0x00, 0x00, 0x00, 0xcc, 0x00, 0x00, 0x00, 0xc4, 0x00, 0x00, 0x00,
  0xbc, 0x00, 0x00, 0x00, 0xb4, 0x00, 0x00, 0x00, 0xac, 0x00, 0x00, 0x00,
  0xa4, 0x00, 0x00, 0x00, 0x9c, 0x00, 0x00, 0x00, 0x94, 0x00, 0x00, 0x00,
  0x74, 0x00, 0x00, 0x00, 0x04, 0x00, 0x00, 0x00, 0x56, 0xde, 0xff, 0xff,
  0x04, 0x00, 0x00, 0x00, 0x60, 0x00, 0x00, 0x00, 0x0c, 0x00, 0x00, 0x00,
  0x08, 0x00, 0x0e, 0x00, 0x08, 0x00, 0x04, 0x00, 0x08, 0x00, 0x00, 0x00,
  0x10, 0x00, 0x00, 0x00, 0x28, 0x00, 0x00, 0x00, 0x00, 0x00, 0x06, 0x00,
  0x08, 0x00, 0x04, 0x00, 0x06, 0x00, 0x00, 0x00, 0x04, 0x00, 0x00, 0x00,
  0x01, 0x00, 0x00, 0x00, 0xeb, 0x03, 0x00, 0x00, 0x0c, 0x00, 0x18, 0x00,
  0x14, 0x00, 0x10, 0x00, 0x0c, 0x00, 0x04, 0x00, 0x0c, 0x00, 0x00, 0x00,
  0x11, 0x0c, 0xbb, 0x3b, 0xaf, 0xd7, 0x5b, 0x51, 0x02, 0x00, 0x00, 0x00,
  0x02, 0x00, 0x00, 0x00, 0x04, 0x00, 0x00, 0x00, 0x06, 0x00, 0x00, 0x00,
  0x32, 0x2e, 0x32, 0x30, 0x2e, 0x30, 0x00, 0x00, 0xc2, 0xde, 0xff, 0xff,
  0x04, 0x00, 0x00, 0x00, 0x10, 0x00, 0x00, 0x00, 0x31, 0x2e, 0x31, 0x34,
  0x2e, 0x30, 0x00, 0x00, 0x00, 0x00, 0x00, 0x00, 0x00, 0x00, 0x00, 0x00,
  0x68, 0xc4, 0xff, 0xff, 0x6c, 0xc4, 0xff, 0xff, 0x70, 0xc4, 0xff, 0xff,
  0x74, 0xc4, 0xff, 0xff, 0x78, 0xc4, 0xff, 0xff, 0x7c, 0xc4, 0xff, 0xff,
  0x80, 0xc4, 0xff, 0xff, 0x84, 0xc4, 0xff, 0xff, 0x88, 0xc4, 0xff, 0xff,
  0x8c, 0xc4, 0xff, 0xff, 0x90, 0xc4, 0xff, 0xff, 0x94, 0xc4, 0xff, 0xff,
  0x98, 0xc4, 0xff, 0xff, 0x9c, 0xc4, 0xff, 0xff, 0xa0, 0xc4, 0xff, 0xff,
  0xa4, 0xc4, 0xff, 0xff, 0xa8, 0xc4, 0xff, 0xff, 0xac, 0xc4, 0xff, 0xff,
  0xb0, 0xc4, 0xff, 0xff, 0xb4, 0xc4, 0xff, 0xff, 0xb8, 0xc4, 0xff, 0xff,
  0xbc, 0xc4, 0xff, 0xff, 0x36, 0xdf, 0xff, 0xff, 0x04, 0x00, 0x00, 0x00,
  0x00, 0x01, 0x00, 0x00, 0x34, 0x51, 0x6f, 0x70, 0x5f, 0x32, 0xfd, 0xcf,
  0xa0, 0x8c, 0x81, 0xa2, 0xac, 0xd4, 0xeb, 0x0c, 0xf4, 0xfb, 0xed, 0xe4,
  0xaf, 0x9c, 0x87, 0x8b, 0x92, 0xb0, 0xcc, 0xdc, 0xef, 0x09, 0x18, 0x04,
  0xe7, 0x15, 0x33, 0x06, 0x02, 0xcd, 0xc0, 0xe5, 0x19, 0x22, 0x33, 0x2d,
  0x06, 0x0c, 0xf7, 0xe7, 0xc7, 0xbf, 0xbf, 0x04, 0x48, 0x7f, 0x3d, 0x03,
  0xe4, 0x9d, 0xb6, 0x10, 0x0b, 0x36, 0x2c, 0xd2, 0x3e, 0x23, 0x15, 0x2e,
  0x1c, 0x12, 0xf7, 0xf0, 0xe5, 0xb6, 0xb1, 0xc8, 0xaf, 0xba, 0xb0, 0x8d,
  0x81, 0xbc, 0xcf, 0xda, 0x0e, 0x1d, 0x3f, 0x4c, 0x4a, 0x2c, 0x5b, 0x57,
  0x37, 0x60, 0x36, 0x25, 0xe8, 0x11, 0x1a, 0xf5, 0x46, 0xff, 0xe5, 0xa2,
  0xc1, 0xb9, 0x3d, 0x71, 0x7c, 0x73, 0xdd, 0x95, 0x81, 0x84, 0xde, 0x2f,
  0x68, 0x71, 0x24, 0x05, 0xde, 0xbb, 0xe3, 0xe8, 0x17, 0x12, 0x07, 0x01,
  0xfd, 0x0a, 0x18, 0x26, 0x24, 0x1a, 0xf6, 0xd6, 0xb0, 0xa5, 0xac, 0xd7,
  0x09, 0x48, 0x6d, 0x7f, 0x65, 0x3c, 0xf7, 0xc5, 0x9e, 0x9e, 0xb1, 0xdf,
  0x06, 0x24, 0x2e, 0x28, 0x19, 0x0a, 0xfe, 0xf8, 0x70, 0x75, 0xf9, 0x0f,
  0x44, 0x1d, 0x64, 0x7d, 0x58, 0x47, 0x07, 0xe2, 0x05, 0x54, 0x49, 0x3d,
  0x32, 0x81, 0xed, 0xd3, 0xb9, 0xff, 0xc9, 0xd6, 0xc1, 0xb4, 0x95, 0xc4,
  0xb5, 0xa1, 0xb1, 0x9c, 0xb8, 0xa4, 0x95, 0x8e, 0x81, 0x8d, 0xa7, 0xbd,
  0xd7, 0x0a, 0x1b, 0x31, 0x21, 0x29, 0x1b, 0x22, 0x1f, 0x35, 0x3e, 0x58,
  0x5f, 0x6f, 0x65, 0x75, 0x66, 0x49, 0x1a, 0x11, 0x06, 0xe4, 0xc4, 0xc9,
  0x07, 0x06, 0x11, 0x19, 0x20, 0x1d, 0x11, 0xf7, 0xd8, 0xba, 0xa7, 0xa6,
  0xbe, 0xe8, 0x1e, 0x54, 0x74, 0x7f, 0x6d, 0x43, 0x03, 0xcf, 0xa4, 0x9b,
  0xa3, 0xc5, 0xe9, 0x0f, 0x21, 0x2a, 0x21, 0x1a, 0x42, 0xe0, 0xff, 0xff,
  0x04, 0x00, 0x00, 0x00, 0x20, 0x00, 0x00, 0x00, 0x9d, 0x0a, 0x00, 0x00,
  0xc7, 0xff, 0xff, 0xff, 0x12, 0xff, 0xff, 0xff, 0x74, 0xff, 0xff, 0xff,
  0x78, 0xff, 0xff, 0xff, 0xf3, 0xfe, 0xff, 0xff, 0xc9, 0x08, 0x00, 0x00,
  0x7a, 0xff, 0xff, 0xff, 0x6e, 0xe0, 0xff, 0xff, 0x04, 0x00, 0x00, 0x00,
  0x00, 0x08, 0x00, 0x00, 0xf0, 0x29, 0xec, 0x12, 0x9c, 0x01, 0xe4, 0xc0,
  0x08, 0x2b, 0xf8, 0x22, 0x99, 0x04, 0xf3, 0xbd, 0xf3, 0x2f, 0x05, 0x21,
  0xa3, 0x10, 0xf3, 0x94, 0xe4, 0x2a, 0x09, 0x27, 0x92, 0xfd, 0x13, 0xa3,
  0xfe, 0x2b, 0x09, 0x29, 0x88, 0x0a, 0x0a, 0xba, 0xf2, 0x2a, 0x0c, 0x24,
  0x9a, 0x11, 0x01, 0xce, 0xea, 0x33, 0x1a, 0x0c, 0x81, 0x02, 0xef, 0xa3,
  0xe6, 0x20, 0x0f, 0x33, 0x88, 0xf4, 0xfe, 0xa9, 0xe3, 0x35, 0x05, 0x1c,
  0xb4, 0x25, 0x16, 0xc8, 0xe9, 0x2c, 0x10, 0x16, 0x84, 0x14, 0xf2, 0x95,
  0xf4, 0x30, 0x15, 0x27, 0xa5, 0x02, 0xf1, 0xc4, 0x07, 0x38, 0x0c, 0x25,
  0xaa, 0x08, 0xed, 0xd2, 0xfe, 0x39, 0x1d, 0x1b, 0xb2, 0x06, 0xff, 0xbb,
  0xf4, 0x33, 0x22, 0x37, 0x94, 0x02, 0x23, 0xa5, 0xd8, 0x34, 0x12, 0x33,
  0xba, 0x0e, 0x16, 0xb9, 0xe7, 0x2c, 0xff, 0x15, 0xa9, 0x2e, 0x0b, 0x9d,
  0xe0, 0x06, 0x27, 0x36, 0x53, 0x10, 0x0e, 0x3c, 0xe1, 0x09, 0x29, 0x36,
  0x64, 0x17, 0x07, 0x56, 0xd5, 0x16, 0x25, 0x32, 0x4f, 0x0b, 0x0d, 0x3f,
  0xdf, 0x11, 0x08, 0x38, 0x6b, 0x23, 0xfe, 0x4f, 0x01, 0x06, 0x05, 0x31,
  0x3c, 0x20, 0xf9, 0x3e, 0x01, 0x19, 0x0e, 0x24, 0x62, 0x22, 0xdd, 0x55,
  0x0b, 0x12, 0x1b, 0x2d, 0x55, 0x18, 0xfb, 0x52, 0x05, 0x14, 0x10, 0x25,
  0x54, 0x0e, 0xf2, 0x60, 0x05, 0x0f, 0x1a, 0x1c, 0x5f, 0x15, 0xf5, 0x50,
  0x11, 0x25, 0x2a, 0x2d, 0x5f, 0x0f, 0xf5, 0x5d, 0xfe, 0x16, 0x2e, 0x24,
  0x5e, 0x11, 0xfc, 0x4d, 0x02, 0x0b, 0x23, 0x21, 0x6d, 0xf5, 0xf3, 0x48,
  0xe8, 0x11, 0x21, 0x21, 0x52, 0xe5, 0x0f, 0x51, 0xee, 0x1f, 0x11, 0x33,
  0x71, 0xf2, 0x0f, 0x6d, 0xef, 0x14, 0x27, 0x40, 0x64, 0x07, 0x04, 0x69,
  0xdc, 0x19, 0x2b, 0x3a, 0x7f, 0xfe, 0x0e, 0x63, 0x01, 0x4c, 0x7f, 0x30,
  0x29, 0x0f, 0x43, 0x11, 0x08, 0x3c, 0x3e, 0x2e, 0x13, 0x45, 0x40, 0x13,
  0x13, 0x4b, 0x31, 0x34, 0x12, 0x3a, 0xf5, 0x06, 0x2b, 0x2d, 0x62, 0x22,
  0x07, 0x31, 0xf2, 0x07, 0x0f, 0x28, 0x62, 0x34, 0x0f, 0xfe, 0x29, 0x04,
  0xfb, 0x22, 0x65, 0x29, 0xfe, 0x2a, 0x15, 0xf5, 0x0c, 0x2e, 0x2e, 0x1a,
  0xf6, 0x41, 0x08, 0xfe, 0x2a, 0x2b, 0x57, 0x17, 0x05, 0x38, 0xdb, 0xf6,
  0x10, 0x36, 0x62, 0x1f, 0xd9, 0xf2, 0x19, 0xd5, 0xf8, 0x26, 0x3c, 0x1b,
  0xed, 0x0e, 0x21, 0xed, 0x02, 0x38, 0x11, 0x13, 0xfb, 0x3e, 0x05, 0xe8,
  0x19, 0x2a, 0x56, 0x11, 0xe3, 0x32, 0xe7, 0xd3, 0x11, 0x3a, 0x5a, 0x12,
  0xe6, 0xe8, 0x26, 0xe6, 0xdd, 0x1c, 0x51, 0x24, 0xf8, 0x08, 0x1a, 0xdb,
  0xfc, 0x15, 0x3d, 0x22, 0xe9, 0x32, 0xf9, 0xfb, 0x1e, 0x26, 0x51, 0x1e,
  0xee, 0x24, 0xfa, 0xc9, 0x00, 0xbb, 0x0e, 0xb2, 0x07, 0x1c, 0x0c, 0x2b,
  0x00, 0xd6, 0x24, 0xa5, 0x2e, 0xfd, 0x06, 0x32, 0x0b, 0xd6, 0x1e, 0xa3,
  0x42, 0xf2, 0x09, 0x3e, 0xf4, 0xd2, 0xfe, 0xa3, 0x31, 0x01, 0x01, 0x48,
  0x09, 0xb8, 0xd3, 0xae, 0x2e, 0x0f, 0xf3, 0x38, 0x13, 0xa8, 0xf7, 0x95,
  0x20, 0x0c, 0x02, 0x17, 0x09, 0xb0, 0x15, 0x81, 0xfa, 0xfb, 0x03, 0x09,
  0xdc, 0xa3, 0x21, 0x8d, 0xfd, 0xea, 0x11, 0x0c, 0xdf, 0xa8, 0x07, 0xa9,
  0xfb, 0x0e, 0x01, 0x1b, 0xe1, 0x9a, 0xff, 0x88, 0x27, 0x12, 0xe8, 0x2c,
  0xf1, 0xb4, 0x15, 0xad, 0x3b, 0x14, 0xff, 0x3e, 0x10, 0xad, 0x1a, 0xa8,
  0x39, 0xf2, 0x16, 0x4f, 0x12, 0xbb, 0x13, 0x9d, 0x4e, 0x00, 0x0f, 0x49,
  0xf6, 0xac, 0x18, 0x8d, 0x4c, 0xf4, 0x10, 0x5a, 0x11, 0x9f, 0x14, 0x8c,
  0x41, 0xe7, 0xf2, 0x3e, 0x02, 0xa1, 0xfd, 0x82, 0x34, 0xf9, 0xff, 0x33,
  0x22, 0xdb, 0x1c, 0xc1, 0x2c, 0x1d, 0xe5, 0x2e, 0x18, 0x04, 0x20, 0xf0,
  0x23, 0x07, 0x00, 0x2a, 0xfc, 0xfa, 0x00, 0xd7, 0x3d, 0x14, 0x18, 0x33,
  0x1d, 0xea, 0xe4, 0xcc, 0x2f, 0x1d, 0x0c, 0x49, 0x13, 0x01, 0xd7, 0xe2,
  0x2e, 0x01, 0x07, 0x42, 0x0c, 0xf1, 0xec, 0xd9, 0x3c, 0xed, 0x03, 0x39,
  0x11, 0xe6, 0xfa, 0xb3, 0x26, 0xe2, 0xff, 0x27, 0xfa, 0xeb, 0xdb, 0xeb,
  0xff, 0xf5, 0xfe, 0x1e, 0x11, 0xcc, 0xf8, 0xc2, 0x16, 0xf7, 0xf8, 0x0e,
  0xf0, 0xc2, 0x01, 0xb4, 0x20, 0xf0, 0xfd, 0x10, 0x07, 0xce, 0x0a, 0xdb,
  0x28, 0x08, 0x0d, 0x47, 0x12, 0xe4, 0xdf, 0xf7, 0x6b, 0x14, 0x02, 0x65,
  0x0a, 0xed, 0xe1, 0xea, 0x6f, 0xf9, 0x0d, 0x7f, 0x14, 0xe1, 0xe3, 0xe7,
  0x69, 0x06, 0x09, 0x6b, 0x1f, 0xd9, 0xd5, 0xd5, 0x69, 0xf8, 0x0d, 0x61,
  0x14, 0xcf, 0xf7, 0xcc, 0x3d, 0xe6, 0xfb, 0x4c, 0xe0, 0xb4, 0x06, 0xae,
  0xf7, 0xf5, 0x1b, 0x03, 0xe4, 0x9f, 0xe9, 0xa7, 0xe0, 0x0a, 0x0a, 0x0c,
  0xf1, 0xb9, 0xed, 0x9a, 0xf8, 0x16, 0xf7, 0xf7, 0xe1, 0xa9, 0xf0, 0x81,
  0xef, 0x1f, 0xed, 0x11, 0x02, 0xc1, 0xd7, 0x85, 0x0a, 0x31, 0xcc, 0x10,
  0x12, 0xd3, 0x0d, 0x86, 0xeb, 0x25, 0xbd, 0x0e, 0x07, 0xdd, 0x1c, 0xa6,
  0x11, 0xfd, 0xd9, 0x19, 0x06, 0xd2, 0x37, 0x9b, 0xf0, 0xea, 0xfb, 0x00,
  0xee, 0xe1, 0x24, 0xb2, 0x0c, 0xee, 0x15, 0xfc, 0xda, 0xdb, 0x2b, 0xc0,
  0xe6, 0x13, 0x22, 0xfc, 0xdd, 0xcc, 0x18, 0xcc, 0xf3, 0x15, 0x29, 0x0e,
  0xe9, 0xc7, 0x02, 0xaf, 0x07, 0x2d, 0x13, 0x10, 0x03, 0xc1, 0xf2, 0xac,
  0xff, 0x28, 0xf0, 0x17, 0x13, 0xd7, 0x0f, 0x9f, 0x14, 0x33, 0xec, 0x14,
  0x04, 0xc1, 0x27, 0xae, 0x16, 0x30, 0x12, 0x1f, 0x11, 0xcc, 0x12, 0xba,
  0xff, 0x2d, 0x15, 0x22, 0x0a, 0xe6, 0x08, 0xaf, 0x21, 0x14, 0x0d, 0x16,
  0x02, 0xce, 0x0c, 0xc3, 0x2c, 0x0a, 0x0a, 0x3e, 0x0e, 0xdf, 0xfa, 0xb2,
  0x35, 0xfd, 0x0a, 0x41, 0xf6, 0xd1, 0xdd, 0xba, 0x36, 0xfb, 0x15, 0x52,
  0xfb, 0xe8, 0xe2, 0xae, 0x1c, 0xfd, 0x0e, 0x0d, 0xfd, 0xbf, 0xdb, 0x9b,
  0x15, 0x0b, 0x09, 0x10, 0x11, 0xd7, 0xff, 0x95, 0x10, 0x0a, 0x03, 0x1e,
  0x0d, 0xcb, 0xec, 0xac, 0x0e, 0x12, 0xfe, 0x17, 0xfd, 0xc6, 0x03, 0xa5,
  0x1e, 0x03, 0x15, 0x23, 0x04, 0xc1, 0xe6, 0x96, 0x31, 0xfc, 0xf9, 0x47,
  0x14, 0xc2, 0xee, 0x96, 0x27, 0x0d, 0x1d, 0x31, 0x1b, 0xce, 0xf9, 0xa2,
  0x1c, 0x0c, 0x12, 0x26, 0x07, 0xc8, 0xf5, 0x97, 0x36, 0x15, 0xf1, 0x27,
  0x09, 0xc7, 0xfc, 0xa5, 0x44, 0x10, 0x07, 0x52, 0x19, 0xcf, 0xec, 0xb3,
  0x4f, 0xf5, 0xfc, 0x41, 0x16, 0xb4, 0xde, 0x81, 0x4d, 0xeb, 0x0a, 0x5b,
  0xf6, 0x5e, 0x30, 0x77, 0x0c, 0x40, 0x18, 0x0b, 0x0c, 0x5e, 0x05, 0x72,
  0x20, 0x2e, 0x03, 0x28, 0x0c, 0x39, 0x4d, 0x6b, 0xfa, 0x12, 0xe4, 0xe8,
  0xd1, 0x44, 0x36, 0x4f, 0x28, 0x1c, 0x1d, 0x1b, 0xdc, 0x43, 0x13, 0x66,
  0x12, 0x2e, 0x1d, 0x0a, 0xf8, 0x46, 0x1b, 0x6e, 0x0d, 0x28, 0xd3, 0xf7,
  0xf3, 0x4e, 0x39, 0x58, 0x09, 0x1a, 0xef, 0x1e, 0xd2, 0x5c, 0x34, 0x6c,
  0x2a, 0x05, 0x07, 0x1b, 0xd4, 0x3a, 0x37, 0x63, 0xfc, 0xf9, 0xf8, 0xfe,
  0xd2, 0x30, 0x2d, 0x6b, 0x1d, 0x13, 0xec, 0x12, 0xe5, 0x3f, 0x2b, 0x5b,
  0x0e, 0x16, 0xf9, 0x06, 0xe7, 0x52, 0x1c, 0x64, 0x1a, 0x26, 0xe8, 0x11,
  0xd5, 0x59, 0x1d, 0x66, 0x08, 0x0b, 0x03, 0x0b, 0xe1, 0x53, 0x18, 0x6d,
  0x1b, 0xfa, 0xe1, 0x02, 0xe4, 0x5e, 0x34, 0x7f, 0x17, 0x13, 0xe5, 0x0e,
  0xf5, 0x54, 0x23, 0x75, 0x0e, 0x37, 0xed, 0x05, 0xf1, 0x1f, 0x53, 0x04,
  0x44, 0x3b, 0x59, 0x4e, 0x13, 0x18, 0x15, 0x0f, 0x53, 0x7f, 0x3b, 0x34,
  0x36, 0x17, 0x39, 0x32, 0x3f, 0x5b, 0xe9, 0x49, 0x36, 0x02, 0x56, 0x16,
  0x4b, 0x58, 0x1d, 0x27, 0x2a, 0xf0, 0x3e, 0x00, 0x2f, 0x3a, 0x3f, 0x3f,
  0x0c, 0xdb, 0x29, 0xe3, 0x30, 0x3b, 0x25, 0x26, 0x09, 0xd0, 0xf9, 0xe6,
  0x03, 0x2d, 0x17, 0x0f, 0x0c, 0xc6, 0x0a, 0xd1, 0xf6, 0x17, 0x10, 0x00,
  0xf9, 0xac, 0xf7, 0xc0, 0xfc, 0xea, 0xf7, 0xfa, 0xfd, 0xc3, 0xeb, 0xaf,
  0xd7, 0xb9, 0x06, 0xce, 0xd2, 0xa4, 0xd5, 0xa6, 0xe8, 0xb6, 0xf3, 0xe0,
  0xb2, 0x8d, 0xbd, 0xab, 0xeb, 0xb8, 0xe9, 0xcb, 0xc2, 0xa0, 0xa0, 0x92,
  0xd4, 0xea, 0xf0, 0xd3, 0xc6, 0xa5, 0xa5, 0x8c, 0xc4, 0xdf, 0xd8, 0xe9,
  0xed, 0xae, 0xc4, 0xc3, 0xea, 0xe4, 0xe8, 0xe9, 0xce, 0xae, 0xbc, 0x9c,
  0xf1, 0xde, 0xec, 0xfd, 0xe0, 0xee, 0x00, 0xb7, 0xe7, 0x17, 0x17, 0xda,
  0x29, 0xe3, 0x18, 0xc4, 0x05, 0x29, 0xc9, 0xdb, 0x13, 0xec, 0x47, 0xc3,
  0xff, 0xd7, 0x04, 0xf0, 0xeb, 0xd6, 0x2c, 0xc7, 0xde, 0xc2, 0x3d, 0xc4,
  0xdc, 0xdc, 0x00, 0xd7, 0x01, 0x11, 0x12, 0xeb, 0x02, 0xfd, 0x62, 0xd0,
  0xe1, 0x0e, 0x09, 0xe1, 0x1b, 0xde, 0x43, 0xd0, 0xf7, 0xfd, 0x31, 0x0a,
  0xf6, 0x00, 0x12, 0xcd, 0x0f, 0x15, 0xfd, 0x03, 0x1e, 0x0c, 0x3d, 0xd9,
  0xf4, 0xfd, 0xf4, 0xc8, 0x14, 0xee, 0x71, 0xe7, 0xdd, 0xd2, 0x37, 0xbb,
  0x02, 0x10, 0x2b, 0xeb, 0x00, 0x1f, 0x2e, 0x17, 0x42, 0xfa, 0x49, 0xe6,
  0x27, 0x30, 0xc2, 0x0f, 0x53, 0x06, 0x7f, 0xe8, 0x01, 0x05, 0x03, 0xd4,
  0xff, 0x28, 0x6a, 0x04, 0x08, 0xe4, 0x63, 0xf5, 0xd3, 0x17, 0xf4, 0x13,
  0x1d, 0x66, 0x3b, 0x05, 0x40, 0x26, 0x3b, 0x01, 0x13, 0x66, 0xba, 0xd3,
  0x03, 0x2c, 0x7f, 0x29, 0x5a, 0x17, 0x29, 0x48, 0x02, 0x23, 0x20, 0x29,
  0x54, 0x2b, 0x3d, 0x5f, 0x12, 0x29, 0x2e, 0x0e, 0x39, 0x3d, 0xf4, 0x31,
  0x23, 0x1e, 0x5d, 0x30, 0x30, 0x0f, 0x00, 0x19, 0xef, 0x11, 0x22, 0x09,
  0x43, 0x0c, 0x35, 0x4c, 0xef, 0x0c, 0xf4, 0x13, 0x36, 0x22, 0xfc, 0x30,
  0x1e, 0x2a, 0x49, 0x09, 0x18, 0x01, 0xf1, 0x05, 0xef, 0x11, 0x37, 0x25,
  0x2d, 0xfc, 0x27, 0x30, 0xe5, 0x15, 0xe2, 0xfd, 0x43, 0x23, 0x1f, 0x44,
  0x02, 0x20, 0x33, 0x15, 0x08, 0xfc, 0xe5, 0x13, 0xff, 0x1d, 0x2a, 0x1d,
  0x17, 0xcf, 0x13, 0x2a, 0xe7, 0x0f, 0xeb, 0x1d, 0x32, 0xfe, 0x13, 0x2d,
  0xfc, 0x19, 0x0b, 0x09, 0x2c, 0x07, 0xe0, 0x1d, 0xfe, 0x1e, 0x31, 0x1f,
  0x23, 0xeb, 0xff, 0x19, 0xf6, 0x10, 0xfe, 0x1b, 0x36, 0x0e, 0x18, 0x3d,
  0x06, 0x25, 0x11, 0x1d, 0x28, 0x17, 0xf7, 0x32, 0xf9, 0x46, 0xfa, 0x60,
  0xf6, 0x28, 0xcf, 0x05, 0xef, 0x54, 0x25, 0x41, 0x07, 0x1c, 0xe0, 0xec,
  0xe4, 0x3a, 0x1e, 0x58, 0xf0, 0x1c, 0xff, 0xf2, 0xe9, 0x2b, 0xfe, 0x5d,
  0x16, 0x01, 0x0d, 0xec, 0xe1, 0x3c, 0x28, 0x4c, 0xe2, 0x35, 0xf2, 0xf1,
  0x10, 0x29, 0x08, 0x3c, 0xf8, 0x1e, 0xf4, 0xdd, 0xe8, 0x48, 0x1a, 0x44,
  0xff, 0x29, 0x00, 0x0c, 0xe2, 0x3c, 0x1a, 0x5c, 0x04, 0x37, 0x08, 0xfa,
  0x01, 0x4f, 0x0e, 0x46, 0x00, 0x44, 0xe8, 0x06, 0x10, 0x5b, 0x14, 0x50,
  0xfd, 0x39, 0xdf, 0xf8, 0x07, 0x4d, 0x1d, 0x5b, 0x0c, 0x2b, 0xe6, 0x01,
  0xee, 0x50, 0x38, 0x63, 0x15, 0xf1, 0x11, 0xfe, 0xe5, 0x52, 0x47, 0x73,
  0x01, 0x0e, 0x2e, 0x0b, 0xe0, 0x58, 0x19, 0x7f, 0x26, 0x24, 0x09, 0x0d,
  0xff, 0x65, 0x00, 0x5e, 0x0d, 0x5b, 0xee, 0x12, 0x1c, 0x59, 0x26, 0x70,
  0x11, 0x63, 0xd9, 0xfb, 0xe7, 0x3e, 0x44, 0x4a, 0xfd, 0xed, 0x03, 0xe3,
  0x06, 0x32, 0x21, 0x57, 0x06, 0xfe, 0x24, 0xf7, 0x0e, 0x3a, 0x2d, 0x5a,
  0xfd, 0x31, 0xfb, 0xfd, 0x1c, 0x5e, 0x37, 0x61, 0xc9, 0x2a, 0xed, 0xd3,
  0x1d, 0x5c, 0x0b, 0x55, 0x12, 0x5c, 0x09, 0xef, 0x0e, 0x2f, 0x1d, 0x63,
  0xf2, 0x5d, 0xe6, 0xd4, 0x18, 0x3e, 0x3f, 0x39, 0xfc, 0x43, 0xec, 0x00,
  0x0d, 0x56, 0x0e, 0x30, 0xfc, 0x3b, 0xe2, 0xd0, 0x04, 0x44, 0x44, 0x2d,
  0x04, 0x08, 0xe9, 0xda, 0x0f, 0x60, 0x57, 0x3a, 0xe9, 0xd1, 0xf0, 0xc4,
  0xdd, 0x50, 0x4c, 0x58, 0xf0, 0x0b, 0x1a, 0xf7, 0xcf, 0x4d, 0x37, 0x6a,
  0xf2, 0x42, 0x17, 0xc5, 0xf6, 0x3c, 0x38, 0x4c, 0x10, 0x6c, 0x0e, 0xf1,
  0x1a, 0x6a, 0x36, 0x55, 0xd8, 0x63, 0xfb, 0xed, 0x3f, 0x7e, 0x52, 0x4f,
  0xf7, 0x66, 0xc7, 0xfb, 0x19, 0x5d, 0x4b, 0x7f, 0xe7, 0x54, 0xdd, 0xe3,
  0x08, 0x23, 0x18, 0x27, 0xe5, 0xfb, 0x00, 0xc0, 0xfa, 0xfd, 0x1c, 0x0a,
  0xda, 0xed, 0x1e, 0xa1, 0xec, 0x1e, 0xd4, 0xfc, 0xd7, 0x19, 0x13, 0xc7,
  0x01, 0x22, 0xbb, 0x0f, 0xcd, 0x3b, 0xf5, 0xda, 0x06, 0x29, 0x08, 0x04,
  0xca, 0x0d, 0xd7, 0xb1, 0x0a, 0x1b, 0x41, 0x11, 0xdc, 0xb5, 0x1c, 0xc2,
  0xc7, 0x11, 0x0c, 0x04, 0xf5, 0xfb, 0x2a, 0xc6, 0xe4, 0x03, 0x81, 0x0c,
  0xe5, 0x4a, 0x14, 0xbf, 0x17, 0x14, 0xf7, 0x1a, 0xdd, 0x4c, 0xc1, 0xd6,
  0x09, 0x1f, 0x33, 0x13, 0xcc, 0x00, 0xfb, 0xae, 0xe0, 0x07, 0x26, 0x1b,
  0xf8, 0xc3, 0x2d, 0xca, 0xce, 0x20, 0xe9, 0x0a, 0xe8, 0x35, 0x12, 0xba,
  0x07, 0x14, 0xf6, 0x2b, 0xc6, 0x58, 0x05, 0xbf, 0x24, 0x17, 0x16, 0x27,
  0xd9, 0x1a, 0xf6, 0xb4, 0xf7, 0x2c, 0x2b, 0x01, 0xde, 0x03, 0x1d, 0xd9,
  0xf9, 0x27, 0x17, 0x16, 0xe5, 0x2c, 0x12, 0xaa, 0xfe, 0x06, 0xe5, 0x12,
  0x91, 0xfb, 0xff, 0xb2, 0x04, 0x0e, 0xf9, 0x0a, 0x81, 0x0e, 0xf5, 0xb9,
  0x0a, 0x09, 0x01, 0x0a, 0x89, 0xfd, 0xfc, 0xa2, 0xff, 0x16, 0xf8, 0x0c,
  0x8e, 0x06, 0x07, 0xb9, 0xff, 0x11, 0xf5, 0x09, 0xa0, 0x0c, 0x08, 0xbe,
  0x08, 0x15, 0xfe, 0x16, 0x92, 0x00, 0x08, 0xa4, 0x0e, 0x12, 0x0b, 0x10,
  0x95, 0x0e, 0xf5, 0xbf, 0x00, 0x12, 0x0b, 0x14, 0xac, 0x12, 0x05, 0xbc,
  0x0c, 0x1c, 0x09, 0x19, 0xa2, 0x05, 0xfa, 0xc7, 0x05, 0x12, 0x14, 0x19,
  0x98, 0xf5, 0xfd, 0xc5, 0xf0, 0x13, 0x0e, 0x19, 0x99, 0x05, 0x0a, 0xb1,
  0xf0, 0x17, 0x03, 0x16, 0x93, 0x09, 0x03, 0xa1, 0xfa, 0x0c, 0x03, 0x14,
  0x9f, 0x14, 0x06, 0xbf, 0x0f, 0x17, 0x00, 0x08, 0x99, 0x16, 0xea, 0xb9,
  0x0a, 0x23, 0x03, 0x05, 0xae, 0x1d, 0xf0, 0xb0, 0xff, 0x08, 0x16, 0x13,
  0xa8, 0x10, 0x03, 0xae, 0xe7, 0xe7, 0xc7, 0x0c, 0xd1, 0x2c, 0xe7, 0xbc,
  0x06, 0xff, 0xb8, 0xec, 0x9f, 0x12, 0xcd, 0xb1, 0x0a, 0x14, 0xf2, 0xe9,
  0xb3, 0xea, 0xd9, 0xa7, 0xdd, 0x05, 0x0b, 0xe9, 0xa4, 0xbe, 0xfb, 0x95,
  0xb5, 0xea, 0xed, 0xee, 0xa8, 0xe3, 0x20, 0xbf, 0xee, 0xfa, 0x9a, 0xed,
  0xd3, 0x38, 0x08, 0xba, 0x2a, 0x0a, 0x9d, 0x0b, 0xcd, 0x4e, 0x9a, 0xe9,
  0x26, 0x2f, 0x15, 0x00, 0xed, 0x23, 0xa0, 0xf0, 0xea, 0x25, 0x3c, 0x21,
  0x1c, 0x81, 0x1e, 0xd9, 0x9d, 0x2b, 0x0e, 0x33, 0xf9, 0xe8, 0x4e, 0xfa,
  0xbd, 0x2c, 0x95, 0x44, 0x2f, 0x3a, 0x23, 0x28, 0x0c, 0x25, 0xb5, 0x24,
  0x06, 0x53, 0xa6, 0xf8, 0x38, 0x35, 0x1c, 0x30, 0x00, 0x48, 0xcf, 0x04,
  0x0e, 0x3e, 0x3a, 0x2f, 0x1d, 0xfe, 0x10, 0x15, 0xe7, 0x0d, 0x32, 0x1b,
  0xfa, 0x1a, 0x2e, 0xe5, 0xd4, 0x06, 0x08, 0x2a, 0xf9, 0x46, 0x19, 0xd0,
  0x7a, 0xe8, 0xff, 0xff, 0x04, 0x00, 0x00, 0x00, 0x40, 0x00, 0x00, 0x00,
  0xaf, 0x00, 0x00, 0x00, 0x12, 0xfb, 0xff, 0xff, 0xc7, 0xff, 0xff, 0xff,
  0xbd, 0xfd, 0xff, 0xff, 0xe7, 0xff, 0xff, 0xff, 0xef, 0xff, 0xff, 0xff,
  0xb4, 0x00, 0x00, 0x00, 0x0f, 0xfb, 0xff, 0xff, 0x5f, 0x00, 0x00, 0x00,
  0x6f, 0x00, 0x00, 0x00, 0xbe, 0xff, 0xff, 0xff, 0x81, 0xfe, 0xff, 0xff,
  0xec, 0xfe, 0xff, 0xff, 0x2c, 0x00, 0x00, 0x00, 0x95, 0x00, 0x00, 0x00,
  0xfc, 0x01, 0x00, 0x00, 0xc6, 0xe8, 0xff, 0xff, 0x04, 0x00, 0x00, 0x00,
  0x00, 0x10, 0x00, 0x00, 0x1f, 0x67, 0x2c, 0xea, 0xb1, 0x52, 0x02, 0x9a,
  0xe2, 0xbe, 0x84, 0x95, 0x86, 0x2b, 0x12, 0x96, 0xd7, 0x1e, 0x2a, 0xe2,
  0xf0, 0xc9, 0xb1, 0xbd, 0x08, 0x8b, 0xac, 0x18, 0x09, 0x23, 0xec, 0x4b,
  0x4e, 0xe9, 0xff, 0x9c, 0x48, 0x5e, 0xed, 0xd3, 0x07, 0xaf, 0x55, 0x1b,
  0x5e, 0xd4, 0xbf, 0xc2, 0x2d, 0xf4, 0x39, 0x8b, 0x37, 0xf8, 0xfd, 0x9e,
  0x9a, 0xf7, 0x90, 0x9b, 0xf1, 0xfe, 0x2b, 0xa2, 0xe1, 0x0e, 0x3c, 0x8d,
  0xd9, 0x2c, 0xc0, 0xc3, 0xed, 0x81, 0x35, 0x24, 0xaf, 0x45, 0x15, 0x99,
  0x14, 0xb1, 0x95, 0x96, 0x19, 0x86, 0xdf, 0xc9, 0xb7, 0xfa, 0x1c, 0xaf,
  0x27, 0xbb, 0xbc, 0x40, 0x4c, 0x51, 0x20, 0xc6, 0x8b, 0x00, 0xd7, 0x41,
  0xce, 0xb1, 0xce, 0x2d, 0xd2, 0xd5, 0x21, 0x49, 0x08, 0xa2, 0x9e, 0xc6,
  0x42, 0x69, 0xa9, 0x2d, 0xa3, 0xdc, 0xd7, 0xbe, 0xe1, 0xd2, 0x9a, 0x1f,
  0xc7, 0xee, 0xd7, 0xa3, 0xed, 0xe2, 0x09, 0xd5, 0x46, 0x0c, 0xf5, 0xb0,
  0x18, 0xd4, 0xef, 0x01, 0xb5, 0xd2, 0xe3, 0xbe, 0xe9, 0xc8, 0x10, 0xe4,
  0x29, 0x0b, 0x0b, 0xc6, 0x02, 0xeb, 0xdd, 0x14, 0xcd, 0x0c, 0xe2, 0xa3,
  0xf9, 0xca, 0xfc, 0xd9, 0x4b, 0x07, 0xec, 0xe6, 0x06, 0xf4, 0xdd, 0x09,
  0xcd, 0xe3, 0x1b, 0xa6, 0xef, 0xc7, 0x18, 0x02, 0x67, 0x35, 0x2d, 0xe0,
  0xf2, 0xfb, 0xdc, 0x20, 0xc3, 0xee, 0x11, 0xb7, 0x1e, 0xc6, 0x14, 0x1d,
  0x58, 0x13, 0xf8, 0xe9, 0xfd, 0x00, 0xda, 0x29, 0xa4, 0x0d, 0x14, 0xdc,
  0x04, 0x81, 0x0e, 0xfa, 0x26, 0x2b, 0x0b, 0xd8, 0x2b, 0xd9, 0xbf, 0x27,
  0xc4, 0x0b, 0xe9, 0xc5, 0x1b, 0x98, 0x0e, 0x2c, 0x36, 0x1e, 0x0f, 0x13,
  0xf5, 0x15, 0xea, 0x0a, 0xed, 0x17, 0x20, 0xa2, 0x06, 0xa4, 0x02, 0x11,
  0x4c, 0x3f, 0x36, 0xe8, 0x30, 0x10, 0xd8, 0x11, 0x45, 0xd9, 0xf9, 0xf4,
  0xa9, 0x0b, 0x82, 0xbd, 0xe9, 0xf3, 0xe1, 0x4b, 0xa8, 0x14, 0xe7, 0xb6,
  0x45, 0xf9, 0xd9, 0xff, 0x24, 0xfc, 0xeb, 0xa5, 0xe4, 0x1b, 0xab, 0x95,
  0x19, 0xfe, 0x1f, 0x40, 0x35, 0xaf, 0xc4, 0xc0, 0x83, 0xa5, 0xd7, 0xeb,
  0xa7, 0x1c, 0x0a, 0x3c, 0x1a, 0x06, 0xbc, 0xf0, 0x2e, 0xd9, 0xf7, 0x53,
  0xd1, 0x1f, 0x56, 0x04, 0x22, 0xa9, 0x34, 0xae, 0x8c, 0xd3, 0x26, 0x39,
  0x1f, 0x2f, 0x3f, 0xc0, 0xe7, 0xba, 0x22, 0x2c, 0xca, 0x18, 0xfd, 0x92,
  0x69, 0x28, 0x54, 0xfe, 0x57, 0xaf, 0x85, 0x43, 0x48, 0x36, 0xfb, 0x83,
  0x23, 0x81, 0xaa, 0x0b, 0x67, 0x8d, 0x31, 0x9b, 0x9d, 0x49, 0xf5, 0xe1,
  0xf8, 0x86, 0xba, 0x82, 0xb8, 0xb7, 0xac, 0x14, 0xc8, 0xbc, 0xde, 0xba,
  0x3b, 0x1d, 0xae, 0x8d, 0xb3, 0xb4, 0x33, 0x01, 0x36, 0x17, 0x82, 0xca,
  0x55, 0x0f, 0xdd, 0xeb, 0x2e, 0x94, 0x89, 0xee, 0xd5, 0xbe, 0x92, 0xc1,
  0x26, 0x55, 0x3b, 0xef, 0x44, 0xec, 0xb5, 0xfd, 0x48, 0xb9, 0xf6, 0xb8,
  0xef, 0xd4, 0x91, 0xc4, 0xe3, 0xd5, 0xb0, 0xef, 0xa4, 0x0b, 0x1e, 0xea,
  0x44, 0xf9, 0xf0, 0x06, 0xb6, 0x2d, 0x9f, 0x24, 0xb0, 0xbf, 0xc1, 0x1c,
  0x02, 0xc2, 0x19, 0x02, 0x5f, 0x2c, 0x42, 0x10, 0x25, 0xa0, 0xa9, 0xfc,
  0xa7, 0x3f, 0xc7, 0xca, 0xfb, 0x1f, 0x31, 0xc0, 0xac, 0x9f, 0x0b, 0x97,
  0x03, 0x39, 0x35, 0xc6, 0xdd, 0x57, 0x96, 0x61, 0x8b, 0x4a, 0xe8, 0x2d,
  0xf8, 0x9f, 0x4e, 0xa5, 0x97, 0x87, 0x62, 0x96, 0x9f, 0x97, 0x82, 0x3c,
  0xcb, 0x81, 0xa2, 0xc3, 0x14, 0xa2, 0xe2, 0x4a, 0xaa, 0x21, 0x46, 0xd1,
  0x2c, 0xd6, 0xe1, 0x29, 0x8a, 0xa8, 0xca, 0x50, 0x16, 0xa0, 0x55, 0x4b,
  0xfb, 0x11, 0x26, 0xef, 0xba, 0x08, 0xfc, 0xfe, 0xb4, 0x9d, 0xe7, 0xb0,
  0xb6, 0xeb, 0xd0, 0x27, 0xa7, 0xe7, 0x52, 0xa9, 0xb2, 0x8c, 0xd9, 0xcd,
  0x5b, 0x19, 0xe6, 0xe5, 0x58, 0xa1, 0xdd, 0xa3, 0xb4, 0xb2, 0x3a, 0x95,
  0x4b, 0xdc, 0x98, 0xba, 0x4b, 0xe1, 0xcc, 0x8a, 0x53, 0x90, 0x0a, 0xaa,
  0xce, 0x38, 0x4b, 0xff, 0x51, 0x2c, 0xd2, 0x26, 0xad, 0xd4, 0xbe, 0xc8,
  0x28, 0x95, 0xf9, 0x2b, 0xb0, 0xf0, 0xaa, 0x96, 0x90, 0x3f, 0x21, 0x27,
  0x3e, 0x2c, 0x3b, 0x02, 0xc5, 0x08, 0x81, 0xbb, 0x8c, 0x13, 0x97, 0x96,
  0x00, 0x1c, 0xac, 0x22, 0x26, 0xd4, 0xa5, 0x45, 0xd1, 0x06, 0x3c, 0x9e,
  0x5d, 0x33, 0xf8, 0xd3, 0xbd, 0xc7, 0xb3, 0x41, 0xe7, 0xa3, 0x9e, 0xe1,
  0xff, 0xd5, 0xfa, 0xd9, 0x23, 0x9d, 0xb0, 0x1f, 0x94, 0x85, 0xba, 0x14,
  0xcd, 0xb9, 0xc4, 0xe0, 0x92, 0x8f, 0x8f, 0x37, 0x41, 0x29, 0xc8, 0x45,
  0xbe, 0x90, 0x07, 0x07, 0x32, 0xea, 0x07, 0xd6, 0xde, 0xda, 0xc7, 0xe0,
  0xe6, 0xfe, 0xe5, 0xb9, 0xd8, 0xf7, 0xc2, 0xd7, 0xc8, 0x03, 0x4d, 0xff,
  0xd1, 0xd6, 0xdc, 0xfa, 0xf9, 0x05, 0xed, 0xdc, 0xea, 0xf2, 0xd3, 0xd9,
  0xd8, 0x17, 0x28, 0x0f, 0xb9, 0xed, 0xe8, 0xf4, 0x02, 0x0f, 0xfc, 0xea,
  0xfb, 0x00, 0xed, 0xf5, 0xe9, 0x08, 0x04, 0x0b, 0x9f, 0xfb, 0xf0, 0x0b,
  0x0b, 0x0d, 0x03, 0xee, 0x14, 0x0b, 0xfc, 0xf7, 0xee, 0x0b, 0xd6, 0x16,
  0x97, 0x09, 0x0b, 0xfc, 0x04, 0x1e, 0x04, 0xfc, 0x05, 0x0a, 0xf7, 0x0e,
  0xf8, 0x06, 0xc3, 0x12, 0x95, 0x16, 0x15, 0x0f, 0x18, 0x1c, 0x0f, 0x10,
  0x18, 0x12, 0x06, 0x0c, 0x01, 0x0d, 0xa5, 0x17, 0x81, 0x22, 0x18, 0x0f,
  0x19, 0x24, 0x12, 0x1a, 0x1d, 0x1d, 0x1a, 0x1e, 0x23, 0x06, 0x97, 0x14,
  0x86, 0x2f, 0x30, 0x26, 0x25, 0x28, 0x13, 0x1c, 0x15, 0x17, 0x23, 0x33,
  0x1f, 0x06, 0x82, 0x27, 0xfb, 0x2a, 0x13, 0x05, 0x10, 0x79, 0x11, 0x07,
  0x3a, 0x19, 0x22, 0x08, 0x0f, 0xff, 0x1b, 0xbe, 0x12, 0x26, 0x0d, 0x1b,
  0x13, 0x62, 0x29, 0xe5, 0x45, 0x20, 0x28, 0xe8, 0x1d, 0xdf, 0x29, 0xaa,
  0x26, 0x1a, 0x17, 0x11, 0x06, 0x69, 0x1d, 0xe3, 0x4b, 0xf9, 0x09, 0xe8,
  0x27, 0xff, 0x0a, 0xa3, 0xfd, 0xff, 0x0c, 0x01, 0x08, 0x6d, 0x28, 0xc3,
  0x35, 0xff, 0xf8, 0xf4, 0xff, 0xda, 0x11, 0xb7, 0x30, 0x07, 0xf2, 0x1b,
  0x0e, 0x7f, 0x05, 0xd6, 0x31, 0xf3, 0x02, 0xd0, 0x11, 0xe6, 0x22, 0xbd,
  0x14, 0x06, 0xed, 0x18, 0x0f, 0x6f, 0x0a, 0xc6, 0x43, 0xfd, 0x0c, 0xe0,
  0xeb, 0xd2, 0x2c, 0xa7, 0x05, 0xe7, 0xf1, 0x05, 0xed, 0x7d, 0x27, 0xa4,
  0x25, 0xfa, 0xf2, 0xc4, 0xfc, 0xdc, 0x1c, 0xa3, 0x0d, 0xdc, 0xf1, 0x05,
  0xf0, 0x77, 0x17, 0x8d, 0x43, 0xea, 0xe1, 0xba, 0xd4, 0xec, 0x16, 0xba,
  0x2d, 0x03, 0x16, 0x12, 0x1c, 0x9e, 0x1d, 0x24, 0x17, 0x14, 0x15, 0x07,
  0xfa, 0xfb, 0x2f, 0xdc, 0x1d, 0xfe, 0x28, 0xfa, 0x11, 0x9f, 0x11, 0x22,
  0x20, 0x13, 0x16, 0xf6, 0xf0, 0x1e, 0x37, 0xed, 0x2e, 0xf3, 0x06, 0x04,
  0xfc, 0x98, 0x15, 0x0d, 0x15, 0x18, 0x04, 0x03, 0x04, 0x1f, 0x38, 0x0a,
  0x2f, 0xf3, 0x23, 0x07, 0xf8, 0x9b, 0x05, 0x1a, 0x26, 0x08, 0x13, 0xe4,
  0xf0, 0x01, 0x2b, 0x0c, 0x3a, 0xef, 0x0d, 0xea, 0xf1, 0x89, 0x09, 0x0d,
  0x22, 0xff, 0xfc, 0xe0, 0xde, 0x2b, 0x24, 0xee, 0x41, 0xfb, 0x07, 0xe3,
  0xe7, 0x8f, 0xe7, 0x07, 0x17, 0x0c, 0xe3, 0xf8, 0xde, 0x17, 0x4d, 0xf1,
  0x4f, 0xe4, 0xfc, 0xda, 0xe7, 0x9b, 0xf5, 0xf6, 0x12, 0x0b, 0xfe, 0xe4,
  0xfc, 0x15, 0x3f, 0x11, 0x56, 0xc4, 0x08, 0xe9, 0xc9, 0x81, 0xea, 0xf9,
  0x1a, 0xf7, 0xef, 0xdc, 0xe5, 0x27, 0x43, 0x06, 0xeb, 0xe1, 0xe2, 0xf3,
  0x0c, 0x3d, 0x09, 0xc4, 0xed, 0x01, 0xed, 0x06, 0xe6, 0xf4, 0xda, 0x29,
  0xea, 0xfd, 0xe7, 0x05, 0xef, 0x3c, 0xf5, 0xee, 0x0f, 0xe3, 0xe9, 0x0b,
  0xec, 0xfd, 0xcc, 0x2a, 0xea, 0xfc, 0xde, 0xe9, 0x02, 0x5b, 0x00, 0xeb,
  0x0c, 0x0a, 0x06, 0xe9, 0x02, 0x03, 0xcb, 0x2f, 0xdf, 0xec, 0xe2, 0x1a,
  0x24, 0x58, 0x0e, 0xfd, 0x00, 0x0e, 0xe9, 0xfa, 0xfc, 0xeb, 0xcc, 0x49,
  0x02, 0x11, 0xeb, 0x0b, 0x24, 0x6d, 0x08, 0xf4, 0x01, 0xed, 0x0e, 0x0b,
  0x00, 0xf0, 0xc2, 0x4a, 0xea, 0x13, 0xd6, 0x08, 0x2a, 0x7d, 0x07, 0xe3,
  0x0d, 0xe7, 0x13, 0x1a, 0x03, 0x0d, 0xc6, 0x2b, 0xe2, 0x27, 0x0a, 0x2c,
  0x21, 0x7c, 0x15, 0x13, 0x1c, 0xf6, 0x0e, 0x08, 0x04, 0xfa, 0xde, 0x35,
  0xd6, 0x28, 0xfa, 0x1c, 0x3b, 0x7f, 0x2b, 0x10, 0x22, 0x00, 0x2a, 0x12,
  0x03, 0x1b, 0xbb, 0x46, 0x4e, 0x1f, 0x2e, 0x2d, 0x2a, 0x33, 0x17, 0x02,
  0x37, 0x0b, 0x2e, 0x14, 0x16, 0x2b, 0x54, 0x30, 0x64, 0x08, 0x3b, 0x1d,
  0x16, 0x3e, 0x25, 0xf9, 0x35, 0x08, 0x0c, 0xf3, 0x1a, 0x30, 0x4c, 0x1f,
  0x5c, 0x20, 0x03, 0x32, 0x26, 0x31, 0xf9, 0xe5, 0x38, 0x20, 0x17, 0xe7,
  0xff, 0x2c, 0x45, 0xee, 0x36, 0x08, 0x04, 0x29, 0x1d, 0x27, 0x02, 0xd5,
  0x36, 0xf3, 0x1d, 0xe3, 0x15, 0x10, 0x41, 0xe2, 0x14, 0xfe, 0xf9, 0x11,
  0xfb, 0x1f, 0x1d, 0xd4, 0x31, 0x1c, 0xfb, 0xbb, 0xe2, 0x0c, 0x1a, 0xee,
  0x13, 0xd9, 0xe7, 0x36, 0x17, 0x10, 0x1c, 0xa8, 0x3d, 0x13, 0x0e, 0x9d,
  0xc7, 0x21, 0x12, 0xdf, 0x04, 0xfa, 0xef, 0x30, 0x0a, 0x1c, 0x1f, 0xb9,
  0x1d, 0xeb, 0xfe, 0x91, 0xb7, 0xf4, 0x06, 0xcf, 0xe1, 0xc3, 0xf8, 0x21,
  0x0d, 0x02, 0x0b, 0x81, 0x3c, 0x08, 0xfa, 0x92, 0xc9, 0x0a, 0x11, 0xbf,
  0x04, 0xfa, 0xef, 0xb9, 0xf6, 0xfc, 0xfd, 0x0a, 0x3d, 0x1b, 0x12, 0x0f,
  0xf7, 0xdd, 0xe4, 0xec, 0xf6, 0xe5, 0x09, 0xaf, 0x0a, 0xf2, 0x0a, 0x04,
  0x2a, 0x09, 0x01, 0x19, 0xff, 0xdc, 0xe6, 0xfb, 0xf1, 0x00, 0xee, 0xaf,
  0x07, 0xf8, 0xf9, 0x02, 0x39, 0x13, 0x20, 0x02, 0x0c, 0xcc, 0xdc, 0xf9,
  0xfc, 0xeb, 0xed, 0x9b, 0x03, 0x06, 0xf7, 0xff, 0x44, 0x10, 0x01, 0x14,
  0x0d, 0xcf, 0xfe, 0x0a, 0x07, 0xfb, 0xf5, 0xa9, 0xf2, 0xec, 0xf1, 0x1a,
  0x39, 0x11, 0x1a, 0x0e, 0x04, 0xe1, 0xe7, 0x0d, 0xed, 0x00, 0xeb, 0x96,
  0x02, 0xf0, 0xfe, 0x19, 0x3d, 0x09, 0x0c, 0x18, 0x17, 0xc7, 0x02, 0x0a,
  0xf6, 0xfe, 0x03, 0x84, 0x02, 0xff, 0xef, 0x13, 0x34, 0x0e, 0x18, 0x03,
  0x0e, 0xd4, 0xfe, 0xfa, 0xfa, 0xec, 0x09, 0x81, 0xeb, 0xf6, 0xe8, 0x13,
  0x29, 0x0d, 0x02, 0x11, 0x14, 0xdd, 0xfb, 0xff, 0xf7, 0xe9, 0x24, 0xd0,
  0x17, 0x0c, 0xb4, 0x05, 0xa8, 0xbf, 0x27, 0x2a, 0x84, 0x15, 0x96, 0x0e,
  0xc1, 0xa1, 0x19, 0x44, 0xc2, 0xf2, 0xb6, 0xf9, 0x56, 0x0c, 0x02, 0xe9,
  0xa8, 0xaf, 0xe0, 0xf4, 0x2e, 0x97, 0xd4, 0xce, 0x34, 0x1b, 0x02, 0xfd,
  0xd7, 0x1e, 0xbb, 0x0b, 0xcf, 0x41, 0x50, 0xe9, 0x62, 0x0c, 0xd5, 0xab,
  0xab, 0xf6, 0x98, 0x89, 0x58, 0x0f, 0x8f, 0x3a, 0xf5, 0x97, 0xb4, 0xec,
  0x23, 0xa8, 0xc4, 0xf0, 0xfc, 0xf5, 0x54, 0xde, 0x61, 0xaf, 0x85, 0x2d,
  0xd1, 0x65, 0xcf, 0xc0, 0x40, 0x67, 0x1a, 0x5d, 0xc6, 0xba, 0x55, 0x3a,
  0xc4, 0xc1, 0xc8, 0xc0, 0x3f, 0xef, 0xbf, 0x32, 0xcf, 0xf6, 0xf7, 0x66,
  0xe5, 0xd8, 0xc4, 0x32, 0x50, 0xee, 0x59, 0x8b, 0xa2, 0x34, 0x3b, 0x3f,
  0x81, 0x96, 0x07, 0xd4, 0x17, 0xc6, 0xd9, 0xa1, 0x03, 0x8b, 0xdd, 0xee,
  0x31, 0x29, 0xb3, 0x3f, 0xf2, 0x8a, 0xc2, 0xab, 0xe2, 0xf9, 0xec, 0xa3,
  0xbe, 0xed, 0xd4, 0xc2, 0xc8, 0xd5, 0xf7, 0xe2, 0x0a, 0xae, 0xec, 0xc4,
  0xe4, 0xe2, 0xea, 0xb9, 0xd2, 0xf6, 0xe7, 0xd4, 0xd9, 0xf4, 0x04, 0xed,
  0x0c, 0xd7, 0xf3, 0xbe, 0xd7, 0xfa, 0xe3, 0xd6, 0xdf, 0xfc, 0xf0, 0xe9,
  0xf6, 0xfd, 0x0f, 0xf8, 0x01, 0xe3, 0x0b, 0xc9, 0xce, 0xf8, 0xce, 0xee,
  0xee, 0x16, 0xfa, 0x00, 0x06, 0x07, 0x14, 0x06, 0x10, 0xf1, 0x1d, 0xb9,
  0xce, 0xe1, 0xc3, 0xf3, 0xfc, 0x19, 0x07, 0x0a, 0x01, 0x13, 0x18, 0x0a,
  0x1f, 0xf8, 0x20, 0xb9, 0xb8, 0xf4, 0xb1, 0x07, 0xfa, 0x1c, 0x0f, 0x16,
  0x1e, 0x1c, 0x0f, 0x13, 0x29, 0xfb, 0x29, 0x97, 0xb6, 0xef, 0x98, 0x16,
  0xf3, 0x1c, 0x10, 0x2d, 0x1e, 0x24, 0x1b, 0x1c, 0x30, 0x17, 0x3b, 0x8b,
  0xa1, 0xd9, 0x81, 0x32, 0xe5, 0x32, 0x1d, 0x38, 0x34, 0x29, 0x16, 0x2b,
  0xb3, 0x1f, 0x26, 0x1e, 0x1b, 0x00, 0x1e, 0x25, 0x39, 0x1c, 0x1f, 0x18,
  0x1e, 0x14, 0xcf, 0xd9, 0xae, 0x1b, 0x26, 0x11, 0x0e, 0xf4, 0x11, 0x20,
  0x13, 0x13, 0x21, 0x0c, 0x0f, 0x11, 0xdf, 0xd1, 0xb6, 0x09, 0x23, 0xf8,
  0x0b, 0x05, 0x14, 0x06, 0x19, 0x1a, 0x10, 0x05, 0x06, 0x11, 0xe0, 0xdf,
  0xa9, 0x02, 0x1a, 0xfc, 0x00, 0xf9, 0x08, 0x0a, 0x04, 0x03, 0x07, 0x01,
  0xf3, 0x02, 0xe8, 0xd8, 0xad, 0xeb, 0x00, 0xf0, 0x05, 0xea, 0x0c, 0xf8,
  0xfe, 0x02, 0xfd, 0xe3, 0xf0, 0xf2, 0xf0, 0xc4, 0xa1, 0xe8, 0x00, 0xf5,
  0xfe, 0xe2, 0xfb, 0xf4, 0xf8, 0xf8, 0xf1, 0xe2, 0xee, 0xf4, 0xe4, 0xba,
  0x9d, 0xd2, 0xef, 0xe9, 0xf0, 0xd8, 0xf6, 0xd7, 0xf9, 0xf3, 0xeb, 0xda,
  0xd9, 0xf8, 0xf3, 0x8c, 0x85, 0xc0, 0xeb, 0xd1, 0xdf, 0xc7, 0xeb, 0xcf,
  0xfc, 0xde, 0xe7, 0xc8, 0xcb, 0xe2, 0xe9, 0x81, 0x22, 0xc3, 0x08, 0x37,
  0x00, 0x53, 0xe0, 0x8a, 0x18, 0x1f, 0xe7, 0xb3, 0xd8, 0x1d, 0x0a, 0x29,
  0xfa, 0xad, 0xf5, 0x2a, 0x06, 0x6b, 0x01, 0xbb, 0x02, 0x22, 0xed, 0xd9,
  0xe6, 0x2c, 0x03, 0x2b, 0xff, 0xc2, 0x05, 0x38, 0x0d, 0x4a, 0x10, 0xb4,
  0x2d, 0x11, 0xfc, 0xc4, 0xef, 0x27, 0x07, 0x29, 0xeb, 0xed, 0xf6, 0x3d,
  0xf6, 0x4f, 0x08, 0xcd, 0x11, 0x23, 0x04, 0xb6, 0xd9, 0x2e, 0x08, 0x0c,
  0xf4, 0x03, 0xf7, 0x64, 0x06, 0x4b, 0x23, 0xb5, 0x32, 0x27, 0x04, 0xbe,
  0xe6, 0x2c, 0xee, 0x03, 0xe1, 0xf6, 0xf9, 0x5c, 0x32, 0x57, 0x2c, 0xbe,
  0x37, 0x06, 0x22, 0xdf, 0xec, 0x08, 0xee, 0x07, 0xda, 0x1d, 0x18, 0x7f,
  0x40, 0x50, 0x1c, 0xd6, 0x19, 0x1d, 0x11, 0xc8, 0xe1, 0x0f, 0xf0, 0x1a,
  0xde, 0x29, 0x14, 0x71, 0x3d, 0x6b, 0x28, 0xe6, 0x1b, 0x0a, 0x1f, 0xd0,
  0xf4, 0x07, 0xe5, 0x1b, 0x1c, 0xc6, 0xc1, 0xd3, 0xd8, 0x29, 0xf3, 0xca,
  0xd0, 0x0e, 0x12, 0xfb, 0x2f, 0xef, 0xa8, 0xb1, 0x10, 0xbf, 0x28, 0xf1,
  0x08, 0x34, 0xb5, 0x40, 0x44, 0x2d, 0x0e, 0x45, 0xcc, 0xd0, 0xe0, 0xf8,
  0xf5, 0xf0, 0x4c, 0xbe, 0xaf, 0xce, 0x31, 0x2d, 0xb2, 0x81, 0xbf, 0xa9,
  0x19, 0xcc, 0x11, 0x40, 0xd2, 0x9b, 0xc9, 0x52, 0x0f, 0xae, 0xe2, 0x9e,
  0xff, 0x53, 0x14, 0xe0, 0xac, 0xc9, 0x4e, 0x2a, 0xe8, 0xda, 0xed, 0x52,
  0x9c, 0xf4, 0xe0, 0x5d, 0xd4, 0xd6, 0xc3, 0x14, 0xa8, 0x32, 0xca, 0xb9,
  0x45, 0xd8, 0x97, 0x01, 0x90, 0x14, 0xb1, 0xde, 0x8f, 0x44, 0xa2, 0xe9,
  0xdd, 0x30, 0x35, 0x10, 0xa1, 0x0c, 0xce, 0xcc, 0xca, 0x0e, 0x26, 0xf2,
  0xc3, 0xcb, 0xba, 0xbb, 0x3a, 0x23, 0x1c, 0xde, 0xbc, 0x1a, 0x9d, 0xa0,
  0x1e, 0x03, 0xcf, 0x9a, 0xfe, 0x1c, 0x04, 0x3a, 0x9b, 0x1c, 0xf4, 0xfd,
  0x9b, 0xc4, 0x53, 0x32, 0x95, 0xab, 0x8e, 0x5e, 0xe5, 0xed, 0xde, 0xf4,
  0x23, 0x0c, 0x55, 0x40, 0xd1, 0xe5, 0x95, 0x13, 0xb5, 0x48, 0xbc, 0xd4,
  0xae, 0xfb, 0xa2, 0x3b, 0x99, 0x3b, 0x55, 0xd2, 0x0b, 0xb9, 0xa7, 0x81,
  0xe3, 0xff, 0x37, 0x44, 0xa1, 0xf2, 0xf2, 0xdb, 0xce, 0x2a, 0xc5, 0xaa,
  0xd0, 0xa2, 0x44, 0x22, 0xb4, 0x0f, 0x2b, 0x06, 0xef, 0x25, 0x3d, 0xc8,
  0x0f, 0xb3, 0x02, 0x13, 0x05, 0xa8, 0x15, 0x84, 0x07, 0x98, 0x9a, 0xd8,
  0x98, 0xa2, 0xf0, 0x58, 0xe3, 0xdc, 0xe5, 0x0a, 0xaa, 0x83, 0xc3, 0xdc,
  0xba, 0x1c, 0x13, 0xa5, 0x17, 0x99, 0x0b, 0x33, 0x90, 0xc2, 0xb9, 0xa3,
  0xa9, 0x36, 0x93, 0x99, 0xad, 0xef, 0xe7, 0x06, 0x46, 0xe7, 0xa7, 0xe1,
  0xf7, 0x50, 0x9f, 0x23, 0x32, 0xcb, 0x1d, 0x90, 0x9b, 0xfd, 0x40, 0xdf,
  0xf0, 0xf8, 0x41, 0xf1, 0xa9, 0x3d, 0x1b, 0x4a, 0x0a, 0x81, 0xc4, 0xc0,
  0xce, 0x38, 0xf5, 0xa0, 0xcd, 0xf6, 0xba, 0xc7, 0xcf, 0xda, 0x21, 0xf2,
  0x22, 0x9d, 0xdd, 0xcc, 0xd8, 0x41, 0x01, 0xc0, 0xe3, 0xf9, 0xd7, 0xdd,
  0xeb, 0xf9, 0x1f, 0x05, 0x17, 0xc9, 0xf4, 0xcd, 0xe0, 0x3e, 0xfd, 0xca,
  0xf5, 0xff, 0xe2, 0xf8, 0xfd, 0xf9, 0x24, 0x05, 0x1d, 0xc7, 0xff, 0xbe,
  0xd6, 0x34, 0xfb, 0xde, 0x04, 0x0e, 0xf0, 0xfc, 0x02, 0x09, 0x2f, 0x1b,
  0x29, 0xd9, 0x07, 0xc1, 0xd2, 0x40, 0xe4, 0xf8, 0xf6, 0x0b, 0xf3, 0x09,
  0x14, 0x19, 0x29, 0x26, 0x3d, 0xd0, 0x1d, 0xcb, 0xd6, 0x34, 0xe1, 0x00,
  0xf3, 0x19, 0xf3, 0x13, 0x1f, 0x27, 0x25, 0x3e, 0x4c, 0xd8, 0x10, 0xaf,
  0xbf, 0x30, 0xd9, 0x0e, 0xf4, 0x19, 0xf4, 0x24, 0x30, 0x3e, 0x39, 0x50,
  0x54, 0xd6, 0x28, 0xab, 0xaf, 0x32, 0xc8, 0x16, 0xfa, 0x20, 0x00, 0x33,
  0x35, 0x48, 0x50, 0x56, 0x15, 0x81, 0xdb, 0xed, 0x1d, 0x2f, 0x17, 0xb9,
  0xd5, 0xec, 0xe1, 0xec, 0xe0, 0xd8, 0xf3, 0x2c, 0x06, 0x96, 0xe7, 0xe9,
  0x11, 0x3f, 0x16, 0xc5, 0xee, 0x00, 0xdb, 0x04, 0xe3, 0xe5, 0x0f, 0x2e,
  0x1a, 0xa6, 0xe5, 0x07, 0x13, 0x45, 0x05, 0xdf, 0xf4, 0xfc, 0xe2, 0x06,
  0x02, 0xe4, 0x07, 0x1d, 0x30, 0xc3, 0xfd, 0x0b, 0x14, 0x43, 0x1f, 0xf8,
  0x01, 0xef, 0x07, 0x15, 0x00, 0x0d, 0x16, 0x49, 0x25, 0xd9, 0xf8, 0xfd,
  0x22, 0x59, 0x0f, 0x0f, 0xef, 0xfe, 0xf7, 0x29, 0x13, 0x15, 0x05, 0x3d,
  0x2b, 0xdb, 0xfc, 0x08, 0x15, 0x5e, 0x11, 0xfa, 0x00, 0x09, 0x11, 0x1d,
  0x23, 0x13, 0x12, 0x5e, 0x45, 0xe2, 0x06, 0x33, 0x23, 0x64, 0x0f, 0x26,
  0x0d, 0x12, 0x0c, 0x3b, 0x24, 0x14, 0x26, 0x54, 0x3f, 0xd4, 0x2c, 0x2d,
  0x01, 0x78, 0x19, 0x2e, 0x02, 0x1a, 0x00, 0x42, 0x1f, 0x34, 0x0f, 0x6e,
  0x2b, 0x16, 0x3d, 0xc3, 0xb0, 0xb1, 0x2c, 0x34, 0xdf, 0xde, 0xd7, 0x45,
  0xa6, 0x4d, 0xd0, 0x48, 0xa1, 0xe4, 0x9f, 0xc2, 0xf5, 0xf6, 0x0e, 0xe6,
  0x29, 0xbe, 0xf3, 0xf2, 0x0d, 0x41, 0x0b, 0xa8, 0xb3, 0x02, 0xdc, 0x36,
  0xf4, 0x25, 0xb5, 0x96, 0xb6, 0xf5, 0xc0, 0xd0, 0xcb, 0x55, 0x17, 0x32,
  0x14, 0xa1, 0xe4, 0x3e, 0x15, 0x50, 0xc3, 0xb1, 0xd1, 0xfb, 0xe1, 0x98,
  0x2e, 0x98, 0x39, 0x3a, 0xa0, 0xdb, 0x30, 0x27, 0x0b, 0x48, 0xd5, 0x9c,
  0x87, 0x94, 0x43, 0x33, 0x3d, 0xf7, 0xd8, 0xb7, 0x4a, 0xd8, 0xae, 0x2e,
  0xc5, 0x03, 0xa3, 0xc4, 0xcf, 0xea, 0xca, 0x99, 0x2e, 0xa5, 0x27, 0x14,
  0x55, 0xc3, 0xb1, 0x99, 0xfc, 0x27, 0x95, 0x21, 0xd6, 0xdc, 0xb5, 0xe1,
  0x1f, 0x56, 0x94, 0xb7, 0xe0, 0x09, 0x55, 0x81, 0x1a, 0xdc, 0xaf, 0xd5,
  0xc2, 0xdc, 0x4e, 0x11, 0x9d, 0x00, 0x2b, 0x33, 0x2c, 0xed, 0xeb, 0xd2,
  0xf7, 0x81, 0xfe, 0xfa, 0x0c, 0xfe, 0x06, 0x12, 0xf9, 0x01, 0x1c, 0x2f,
  0x3d, 0x0d, 0x02, 0xcf, 0x27, 0xac, 0xf4, 0xee, 0x17, 0xfe, 0x06, 0xf0,
  0x02, 0x0b, 0x18, 0x13, 0x23, 0x19, 0x05, 0xc1, 0x15, 0xb1, 0x11, 0xf5,
  0x22, 0xed, 0xf1, 0xf2, 0xe8, 0x04, 0x35, 0x0b, 0x43, 0x0b, 0x04, 0xda,
  0x28, 0x9e, 0xef, 0xf3, 0x30, 0xef, 0x0a, 0xec, 0x0e, 0x08, 0x24, 0x21,
  0x33, 0x00, 0x0d, 0xea, 0x0f, 0x9e, 0x09, 0xef, 0x12, 0xe9, 0x0f, 0xff,
  0xec, 0xef, 0x33, 0x1a, 0x26, 0xf5, 0xe9, 0xee, 0x06, 0xba, 0xff, 0xe5,
  0x31, 0xf7, 0x05, 0x0b, 0xea, 0xf8, 0x28, 0x15, 0x24, 0x19, 0x16, 0xe6,
  0x29, 0xc1, 0x11, 0xd9, 0x36, 0xf9, 0x07, 0x17, 0x01, 0x0b, 0x35, 0x31,
  0x34, 0x25, 0xf1, 0xdd, 0x0e, 0xbf, 0xf5, 0xfa, 0x31, 0x05, 0xf5, 0x22,
  0xff, 0x07, 0x29, 0x2d, 0x3a, 0xac, 0xfe, 0x81, 0xaf, 0xd2, 0xb4, 0x08,
  0xc0, 0xef, 0xe7, 0x44, 0x0b, 0x09, 0x37, 0x46, 0x47, 0xc3, 0x0d, 0xa7,
  0xb6, 0xe8, 0xc0, 0x06, 0xcc, 0xf6, 0xe3, 0x2c, 0x1e, 0x2b, 0x3f, 0x47,
  0x50, 0xb8, 0x09, 0xb4, 0xd4, 0xf4, 0xc7, 0xef, 0xda, 0xf0, 0xe4, 0x41,
  0x1d, 0x09, 0x2e, 0x4f, 0x47, 0xa4, 0x09, 0xd6, 0xd1, 0x13, 0xbd, 0x06,
  0xd5, 0xea, 0xe5, 0x40, 0x02, 0x24, 0x4b, 0x4d, 0x42, 0xa0, 0x0b, 0xd9,
  0xd9, 0x26, 0xdf, 0xe5, 0xe7, 0xef, 0xe4, 0x2e, 0x1e, 0x19, 0x3b, 0x60,
  0x4d, 0xb1, 0x04, 0xfb, 0x08, 0x50, 0xea, 0xec, 0xe6, 0xe9, 0xd8, 0x1e,
  0x0a, 0x1c, 0x2d, 0x53, 0x4e, 0xbc, 0x17, 0x2e, 0xfb, 0x4b, 0x04, 0xde,
  0xdb, 0x0e, 0xdb, 0x27, 0x01, 0x30, 0x38, 0x45, 0x54, 0xac, 0x09, 0x40,
  0x1f, 0x7b, 0x14, 0xc6, 0xf7, 0x0c, 0xdb, 0x12, 0x11, 0x2d, 0x32, 0x5c,
  0xf7, 0xec, 0x0c, 0x17, 0xf2, 0x15, 0xf5, 0xce, 0x09, 0x0c, 0x03, 0xe7,
  0x0f, 0x07, 0x01, 0x98, 0x07, 0xda, 0x16, 0x33, 0xfa, 0x2c, 0x10, 0xc7,
  0xf6, 0x13, 0x0f, 0xdd, 0x0e, 0xf0, 0xf9, 0xb0, 0xff, 0xf9, 0x0e, 0x28,
  0x06, 0x1d, 0x12, 0xd7, 0x0e, 0x12, 0x15, 0xe0, 0x06, 0xf7, 0x0a, 0xa2,
  0xfb, 0xe1, 0x18, 0x2a, 0x13, 0x23, 0x13, 0xc5, 0x03, 0x05, 0xff, 0xe8,
  0x07, 0xeb, 0x11, 0xa8, 0xfb, 0xea, 0x01, 0x33, 0x04, 0x16, 0xfd, 0xc5,
  0x10, 0x11, 0x1b, 0xdb, 0xfc, 0xee, 0x0d, 0x9c, 0xf8, 0xf8, 0x16, 0x46,
  0x11, 0x31, 0x10, 0xc3, 0x1c, 0x02, 0x19, 0xf0, 0xf6, 0xfd, 0x11, 0x8a,
  0x06, 0xea, 0xfc, 0x40, 0x1a, 0x22, 0x07, 0xbf, 0x18, 0x05, 0x0f, 0xd0,
  0xf7, 0xf5, 0x00, 0x8b, 0xf4, 0xf9, 0x16, 0x4b, 0x16, 0x1b, 0x0b, 0xc3,
  0x22, 0x11, 0x22, 0xd5, 0xf1, 0xed, 0xf7, 0x81, 0xea, 0xf4, 0xe2, 0xc6,
  0xe1, 0x81, 0xe9, 0xfe, 0xae, 0xd7, 0xe2, 0xfb, 0x03, 0xee, 0x4b, 0xe4,
  0xe9, 0xf3, 0xec, 0xcd, 0xf0, 0xaa, 0xf2, 0xf4, 0xbd, 0xe5, 0xeb, 0x05,
  0xf8, 0xe7, 0x2c, 0xf1, 0xd7, 0xf3, 0xf3, 0xe4, 0xf5, 0xc3, 0xfa, 0x01,
  0xbd, 0xf5, 0xf1, 0xfd, 0x01, 0xf4, 0x14, 0xf0, 0xd9, 0xfa, 0xf7, 0xee,
  0xff, 0xe5, 0xfe, 0x08, 0xdc, 0x00, 0xf5, 0xfb, 0x03, 0xe4, 0x01, 0xe9,
  0xce, 0x09, 0xfe, 0xfd, 0xfc, 0xff, 0x00, 0xfc, 0xe3, 0x01, 0xf9, 0x05,
  0xfe, 0xde, 0xea, 0xdd, 0xd1, 0x0d, 0x09, 0x0c, 0x04, 0x10, 0x0b, 0x03,
  0xf5, 0x09, 0x08, 0x08, 0xf8, 0xdf, 0xdc, 0xe0, 0xbe, 0x15, 0x0c, 0x0c,
  0x0c, 0x29, 0x22, 0x01, 0x02, 0x1d, 0x17, 0xfb, 0x05, 0xdf, 0xd3, 0xe0,
  0xc4, 0x1d, 0x17, 0x28, 0x18, 0x35, 0x28, 0x13, 0xf6, 0x2d, 0x16, 0x09,
  0x05, 0xe9, 0xd0, 0xed, 0xa5, 0x5f, 0x2e, 0xb9, 0xe9, 0xf6, 0xb6, 0x1d,
  0x53, 0xd0, 0x2d, 0x4f, 0x50, 0xa6, 0xb6, 0x11, 0x85, 0x41, 0x06, 0xb8,
  0xef, 0xfd, 0xc3, 0x48, 0x39, 0xfc, 0x14, 0x02, 0x08, 0xeb, 0xad, 0xf7,
  0x81, 0x28, 0x2e, 0xc9, 0x0e, 0x19, 0xb7, 0x0d, 0x30, 0x17, 0x18, 0x2e,
  0x45, 0xc1, 0x08, 0x29, 0x9f, 0xd9, 0xfa, 0xb0, 0xff, 0xfc, 0xbb, 0x13,
  0x36, 0x10, 0xe0, 0xdc, 0xed, 0xd5, 0xea, 0x50, 0xa4, 0xdc, 0x0d, 0x90,
  0x0e, 0x2c, 0xf2, 0xb7, 0x18, 0xf3, 0xfd, 0x07, 0x0c, 0xc8, 0xef, 0x39,
  0xb6, 0xbd, 0xd2, 0xa3, 0xcb, 0x5d, 0xd3, 0xf7, 0x33, 0xc7, 0xf5, 0x06,
  0x28, 0x05, 0x29, 0x0b, 0xb6, 0xc9, 0xdc, 0x81, 0x01, 0x09, 0x06, 0xdd,
  0x29, 0x01, 0xea, 0xe6, 0xbd, 0xd1, 0x3d, 0xc9, 0x81, 0xd0, 0xfe, 0xb1,
  0xb7, 0x58, 0xd5, 0x8a, 0x36, 0xf4, 0xbf, 0xc6, 0x03, 0xd7, 0x15, 0xd9,
  0x04, 0x14, 0x08, 0xd7, 0xe7, 0xe6, 0x0b, 0x37, 0x6f, 0x23, 0x36, 0xf7,
  0x22, 0xe0, 0xc6, 0xc3, 0x11, 0x22, 0x22, 0xeb, 0xfb, 0xd7, 0xfe, 0x30,
  0x59, 0xfd, 0x2d, 0x0e, 0x1c, 0x05, 0xcd, 0xd5, 0xf2, 0x1c, 0xf9, 0xd3,
  0xea, 0xd2, 0xdd, 0x2c, 0x2d, 0x07, 0x1a, 0xdc, 0x17, 0xe9, 0xca, 0xbc,
  0x00, 0xf7, 0x0f, 0xa4, 0xea, 0xf0, 0xf3, 0x37, 0x49, 0xfd, 0x20, 0xdb,
  0xe7, 0x16, 0xd5, 0xce, 0x06, 0xfd, 0xfc, 0xcd, 0xe1, 0xd9, 0xde, 0x01,
  0x2c, 0x0f, 0xeb, 0xee, 0x1c, 0x12, 0xe0, 0xb2, 0x17, 0xce, 0xf6, 0xa4,
  0xb7, 0xe9, 0xe5, 0x14, 0x2c, 0x2e, 0xf7, 0xfa, 0xe2, 0xed, 0xf3, 0xbd,
  0x24, 0xca, 0xe3, 0x81, 0x92, 0xd0, 0xc8, 0x1f, 0x17, 0xf9, 0x06, 0xe7,
  0x04, 0x0d, 0xcf, 0xa3, 0x19, 0xcf, 0xfc, 0x8b, 0xb0, 0xbc, 0xac, 0xea,
  0x20, 0x0a, 0xd3, 0xc9, 0xe5, 0xe8, 0xd5, 0xa9, 0x98, 0x48, 0x24, 0x0a,
  0x4d, 0xe0, 0x25, 0x29, 0x36, 0x02, 0x47, 0x24, 0x21, 0xb3, 0x92, 0xd9,
  0x81, 0x2f, 0x28, 0x34, 0x10, 0xd3, 0x22, 0x15, 0x29, 0xf1, 0x0a, 0x06,
  0x01, 0xc9, 0x8f, 0xd4, 0xaf, 0xe9, 0xff, 0xef, 0xfd, 0xec, 0x0a, 0x0e,
  0x0d, 0x09, 0xfd, 0x03, 0xf2, 0xed, 0xa9, 0xd7, 0xa1, 0x0b, 0x03, 0xec,
  0xd5, 0xe7, 0xfc, 0x25, 0x24, 0xf7, 0x14, 0xfc, 0xea, 0xd7, 0x8d, 0xba,
  0xa5, 0xf7, 0x06, 0xe6, 0xc5, 0xe6, 0xd7, 0xdc, 0x16, 0xee, 0xf5, 0xe4,
  0x09, 0xdb, 0xa2, 0xc7, 0xb6, 0xef, 0xec, 0xe4, 0xd1, 0xf4, 0xe1, 0x06,
  0x19, 0xcf, 0xf7, 0x05, 0xde, 0xc6, 0xb7, 0xbf, 0xac, 0xc6, 0xc9, 0xe6,
  0xe0, 0x17, 0xe4, 0xf1, 0x13, 0xfe, 0xd8, 0xf6, 0xf7, 0xba, 0xb4, 0x15,
  0xc5, 0xde, 0xd5, 0xd4, 0xc3, 0xf8, 0xcc, 0xfd, 0x10, 0xe3, 0xeb, 0x0f,
  0xd4, 0xd6, 0xa5, 0xee, 0xe7, 0xf2, 0xc5, 0xa9, 0x19, 0xe1, 0xfb, 0xfa,
  0x4e, 0xf7, 0x0b, 0xe9, 0xe3, 0xc1, 0x2b, 0x1f, 0xff, 0x0c, 0x02, 0xc3,
  0x0f, 0xcf, 0xf9, 0xd2, 0x30, 0x17, 0xef, 0xf6, 0xf7, 0xba, 0x0a, 0x2f,
  0x0f, 0xf0, 0xe5, 0xc3, 0xfd, 0xd9, 0x09, 0xda, 0x33, 0x1f, 0xe8, 0x22,
  0xe8, 0xc0, 0x23, 0x4f, 0x15, 0x09, 0x0a, 0xe0, 0x1f, 0xd6, 0x08, 0x04,
  0x38, 0x21, 0x02, 0xff, 0x08, 0xe6, 0x4b, 0x29, 0x3b, 0x03, 0xfc, 0xb6,
  0x1e, 0xf6, 0x2c, 0xf9, 0x37, 0x12, 0x0f, 0x23, 0x0f, 0xe0, 0x5a, 0x2f,
  0x4f, 0x26, 0xf6, 0xb7, 0xf2, 0xed, 0xfc, 0xf0, 0x58, 0x24, 0x24, 0x09,
  0x00, 0x09, 0x4e, 0x71, 0x31, 0x22, 0x02, 0xc6, 0x01, 0x0a, 0x07, 0x04,
  0x38, 0x11, 0x04, 0x36, 0x10, 0xe5, 0x2f, 0x4f, 0x41, 0x19, 0x07, 0xa4,
  0x01, 0x11, 0x22, 0x12, 0x37, 0x08, 0xf8, 0x1f, 0x0c, 0x0a, 0x47, 0x7f,
  0x30, 0x4d, 0x06, 0xa1, 0xd2, 0x5c, 0xf0, 0xf1, 0x8a, 0xfe, 0xa2, 0x3c,
  0x8c, 0xc5, 0x10, 0xb9, 0xc9, 0xb3, 0xe9, 0x8d, 0xb2, 0x3b, 0x08, 0x50,
  0x3f, 0x93, 0x09, 0xcc, 0x1a, 0x38, 0x99, 0xe7, 0x81, 0x2c, 0xa7, 0xb8,
  0x33, 0xc1, 0xd9, 0xb3, 0x26, 0x0d, 0x26, 0x15, 0x2a, 0xf5, 0x3c, 0x0c,
  0x57, 0x8d, 0x2d, 0xac, 0x3e, 0xa8, 0x5b, 0xb1, 0xd5, 0x08, 0xa5, 0x9b,
  0xb9, 0x9a, 0xbb, 0xd5, 0x15, 0x27, 0x5f, 0x57, 0xf9, 0xd4, 0x0f, 0x33,
  0xaf, 0xf6, 0xf4, 0x1f, 0x92, 0xa3, 0xf1, 0x15, 0xcc, 0xc6, 0x3c, 0x87,
  0xed, 0x29, 0x36, 0xcc, 0xd7, 0xcd, 0xf5, 0xe4, 0xd4, 0xcd, 0x0f, 0xb8,
  0x1d, 0xcb, 0xe3, 0x90, 0xa7, 0x10, 0x0f, 0xdb, 0x94, 0xb6, 0x5c, 0x27,
  0x3c, 0x3f, 0xd8, 0x59, 0x22, 0x16, 0xed, 0xa1, 0xa2, 0xf3, 0xa4, 0x2a,
  0xde, 0xbf, 0xc3, 0xb1, 0x2c, 0x11, 0xd9, 0xc2, 0x24, 0x90, 0x0c, 0xa2,
  0x2a, 0xe7, 0x15, 0xe9, 0xe5, 0x13, 0x02, 0x09, 0x1a, 0x09, 0x20, 0x1c,
  0x25, 0x90, 0xf7, 0xa7, 0x14, 0xf1, 0x10, 0xe1, 0xed, 0x18, 0xfa, 0x09,
  0x00, 0x12, 0x30, 0x13, 0x26, 0x81, 0x03, 0xcf, 0x2a, 0xed, 0x19, 0xf3,
  0xe4, 0x17, 0x04, 0x10, 0x04, 0x05, 0x25, 0x0c, 0x35, 0x9f, 0x06, 0xca,
  0x10, 0x09, 0x15, 0xe7, 0xf2, 0x00, 0x13, 0x1f, 0x1a, 0x1b, 0x2a, 0x29,
  0x32, 0x87, 0xf9, 0xd5, 0x18, 0x12, 0x1e, 0xe8, 0xf0, 0x1c, 0x1b, 0x0a,
  0x1e, 0x1e, 0x28, 0x1d, 0x31, 0xa4, 0x07, 0xf9, 0x23, 0x1c, 0x37, 0xee,
  0x04, 0x1e, 0x00, 0x1c, 0x0d, 0x13, 0x20, 0x3f, 0x45, 0x9b, 0xf4, 0x0b,
  0x37, 0x33, 0x37, 0xdb, 0x0f, 0xfd, 0x0a, 0x13, 0x24, 0x0a, 0x20, 0x28,
  0x2f, 0x81, 0x04, 0x0f, 0x1e, 0x36, 0x29, 0xd9, 0x0f, 0x1b, 0xfb, 0x08,
  0x18, 0x18, 0x2b, 0x3d, 0xdd, 0x27, 0xf7, 0x4b, 0xdc, 0xe4, 0xe4, 0xb7,
  0x08, 0x1d, 0xe7, 0x1a, 0xb6, 0xc1, 0xbc, 0x9e, 0x1d, 0x1e, 0x8c, 0xab,
  0xd7, 0x1a, 0xcb, 0x81, 0xee, 0xe5, 0xb8, 0x2a, 0xc8, 0xfc, 0xb0, 0xf1,
  0xfa, 0xc7, 0x00, 0xfb, 0x1e, 0x4f, 0xdf, 0xa0, 0xbb, 0xd5, 0xfb, 0xa5,
  0xc4, 0xb5, 0xf3, 0x12, 0xf6, 0x9e, 0xb3, 0xfa, 0x36, 0x08, 0xf6, 0x41,
  0xbc, 0xe8, 0x33, 0xa1, 0x51, 0xa1, 0x8f, 0xb3, 0x44, 0x28, 0xba, 0x2e,
  0xe9, 0x0b, 0xfb, 0xb5, 0x46, 0xe5, 0x34, 0x30, 0x98, 0x08, 0x94, 0xa7,
  0xed, 0x9e, 0xcc, 0x4e, 0xff, 0xba, 0x18, 0x57, 0x23, 0xe7, 0x0d, 0x45,
  0x48, 0x9b, 0xbe, 0x4a, 0xd7, 0x4c, 0xdf, 0x2c, 0x1a, 0x06, 0x8e, 0xb3,
  0xbf, 0x15, 0x97, 0xfb, 0x4f, 0x42, 0x92, 0x55, 0xd1, 0xe7, 0xa9, 0xdb,
  0xc3, 0xc9, 0x03, 0xa8, 0x15, 0x3a, 0x25, 0xe6, 0xc7, 0x2d, 0xa7, 0xbb,
  0x8a, 0x42, 0xa9, 0xc2, 0x81, 0xad, 0xe0, 0x84, 0x56, 0x36, 0xf3, 0xc9,
  0x4c, 0x49, 0xae, 0xc1, 0xa3, 0x02, 0x21, 0xa8, 0x2a, 0xef, 0xb2, 0xab,
  0xb8, 0xfb, 0x34, 0xcd, 0xff, 0xba, 0x35, 0x1e, 0xf3, 0xd2, 0xa2, 0xf3,
  0xb6, 0x15, 0xfb, 0xbb, 0xdc, 0x34, 0xb9, 0xcb, 0x8c, 0xcf, 0xc5, 0xe6,
  0x8a, 0xdc, 0x95, 0x63, 0xc8, 0xd1, 0xcb, 0x65, 0x23, 0x92, 0xd7, 0x07,
  0x4a, 0x0d, 0xef, 0xc6, 0x55, 0xc0, 0xb3, 0xf4, 0xa6, 0x97, 0xbf, 0xe7,
  0x38, 0x2d, 0x06, 0x96, 0x18, 0x68, 0xe6, 0xca, 0x96, 0x2f, 0x5d, 0x54,
  0xbc, 0x04, 0xdd, 0x9d, 0x58, 0xc7, 0xf5, 0xf0, 0xeb, 0x25, 0x86, 0xcc,
  0x1a, 0x32, 0x09, 0x27, 0x2d, 0x88, 0x4f, 0x3a, 0xd9, 0xc6, 0x9d, 0x36,
  0x2d, 0x09, 0x36, 0xd7, 0xc0, 0x98, 0x51, 0x8e, 0xc1, 0x47, 0xad, 0x8f,
  0xfc, 0xd4, 0xbe, 0xf0, 0xfd, 0xbd, 0x03, 0x1f, 0xd2, 0xf8, 0xff, 0xff,
  0x04, 0x00, 0x00, 0x00, 0x80, 0x00, 0x00, 0x00, 0xef, 0xff, 0xff, 0xff,
  0x79, 0x00, 0x00, 0x00, 0xef, 0xff, 0xff, 0xff, 0xf0, 0xff, 0xff, 0xff,
  0xf8, 0xff, 0xff, 0xff, 0xf3, 0xff, 0xff, 0xff, 0x13, 0x00, 0x00, 0x00,
  0xf5, 0xff, 0xff, 0xff, 0x2f, 0x00, 0x00, 0x00, 0xe5, 0xff, 0xff, 0xff,
  0x3c, 0x00, 0x00, 0x00, 0xf2, 0xff, 0xff, 0xff, 0x0a, 0x00, 0x00, 0x00,
  0x13, 0x00, 0x00, 0x00, 0x32, 0x00, 0x00, 0x00, 0xf2, 0xff, 0xff, 0xff,
  0xdf, 0xff, 0xff, 0xff, 0x02, 0x00, 0x00, 0x00, 0x0d, 0x00, 0x00, 0x00,
  0xf3, 0xff, 0xff, 0xff, 0xe2, 0xff, 0xff, 0xff, 0x19, 0x00, 0x00, 0x00,
  0x3c, 0x00, 0x00, 0x00, 0x3a, 0x00, 0x00, 0x00, 0xa4, 0x00, 0x00, 0x00,
  0x3e, 0x00, 0x00, 0x00, 0xe9, 0xff, 0xff, 0xff, 0x37, 0x00, 0x00, 0x00,
  0xf3, 0xff, 0xff, 0xff, 0x52, 0x00, 0x00, 0x00, 0xf3, 0xff, 0xff, 0xff,
  0xf5, 0xff, 0xff, 0xff, 0x5e, 0xf9, 0xff, 0xff, 0x04, 0x00, 0x00, 0x00,
  0x00, 0x01, 0x00, 0x00, 0x12, 0xfe, 0x09, 0x0f, 0x07, 0xf4, 0xbb, 0xe4,
  0x04, 0xb4, 0x06, 0x16, 0xb9, 0xf5, 0xcc, 0x06, 0xf0, 0x8f, 0xa3, 0x13,
  0xfb, 0xbe, 0x81, 0x32, 0xeb, 0x01, 0xe9, 0xfd, 0x1f, 0x8b, 0x0e, 0x01,
  0x09, 0x0e, 0x03, 0x03, 0x0a, 0x99, 0x18, 0xea, 0x0d, 0x12, 0x0f, 0xff,
  0x7f, 0xca, 0xe8, 0xec, 0xf6, 0x27, 0xf1, 0x06, 0x0f, 0xe1, 0x02, 0xea,
  0xf0, 0xed, 0x08, 0x11, 0x0f, 0xf8, 0xfd, 0xed, 0x03, 0x04, 0xf3, 0xd6,
  0x08, 0xe1, 0xb3, 0xfe, 0x24, 0xb0, 0x21, 0xd8, 0x8c, 0x7f, 0x1e, 0x19,
  0xdc, 0x25, 0x3f, 0x12, 0xea, 0x1f, 0xcf, 0x99, 0x29, 0x2c, 0x31, 0x0c,
  0x14, 0x27, 0x1e, 0xec, 0x02, 0xf5, 0x08, 0x1d, 0xe6, 0x11, 0x0a, 0xf8,
  0x14, 0x11, 0xea, 0x08, 0xbd, 0x15, 0x1e, 0xe4, 0xe5, 0x81, 0xd1, 0x1b,
  0x0f, 0x01, 0x26, 0x35, 0xd1, 0xe5, 0xb8, 0xec, 0xe2, 0xec, 0xeb, 0xe5,
  0x04, 0xea, 0xf9, 0x08, 0x04, 0x04, 0x12, 0xe7, 0x16, 0xfe, 0x01, 0xfd,
  0x81, 0xa4, 0x20, 0xfa, 0x01, 0xb1, 0xe9, 0x04, 0x09, 0x1c, 0x1d, 0x14,
  0x26, 0xf6, 0xf5, 0x0e, 0x17, 0xfd, 0xe8, 0x0c, 0xf9, 0xfa, 0x0b, 0xf8,
  0xe6, 0x39, 0xe4, 0x26, 0x0c, 0xf7, 0x0d, 0x10, 0x81, 0xce, 0x0a, 0x0d,
  0xfe, 0xdc, 0xfc, 0xe5, 0x0c, 0x2c, 0xc8, 0xb6, 0xf3, 0x13, 0xfd, 0x25,
  0x09, 0x2e, 0x1a, 0xf2, 0xf0, 0x03, 0x01, 0x14, 0x13, 0x23, 0x12, 0x16,
  0xea, 0x08, 0xf1, 0x03, 0xda, 0x4a, 0xe8, 0xeb, 0xf0, 0x81, 0xd9, 0x12,
  0x0d, 0xea, 0xf6, 0x2f, 0xfb, 0xfa, 0xee, 0x06, 0xf5, 0x09, 0xed, 0xfd,
  0xfe, 0xee, 0x07, 0x11, 0x04, 0x81, 0x04, 0x02, 0xee, 0xee, 0x07, 0x06,
  0x24, 0x31, 0xe1, 0xf6, 0x02, 0x33, 0x14, 0xff, 0x0a, 0x12, 0xfe, 0xf4,
  0xfc, 0x02, 0x14, 0x08, 0x09, 0x14, 0x07, 0xf6, 0x6a, 0xfa, 0xff, 0xff,
  0x04, 0x00, 0x00, 0x00, 0x20, 0x00, 0x00, 0x00, 0xcb, 0xff, 0xff, 0xff,
  0x5c, 0x00, 0x00, 0x00, 0x06, 0x00, 0x00, 0x00, 0xd1, 0xff, 0xff, 0xff,
  0x3c, 0x00, 0x00, 0x00, 0xdd, 0xff, 0xff, 0xff, 0x0d, 0x00, 0x00, 0x00,
  0xc7, 0xff, 0xff, 0xff, 0x96, 0xfa, 0xff, 0xff, 0x04, 0x00, 0x00, 0x00,
  0x0c, 0x00, 0x00, 0x00, 0xff, 0xff, 0xff, 0xff, 0xee, 0x00, 0x00, 0x00,
  0x20, 0x00, 0x00, 0x00, 0xae, 0xfa, 0xff, 0xff, 0x04, 0x00, 0x00, 0x00,
  0x0c, 0x00, 0x00, 0x00, 0xff, 0xff, 0xff, 0xff, 0xf5, 0x00, 0x00, 0x00,
  0x10, 0x00, 0x00, 0x00, 0xc6, 0xfa, 0xff, 0xff, 0x04, 0x00, 0x00, 0x00,
  0x0c, 0x00, 0x00, 0x00, 0xff, 0xff, 0xff, 0xff, 0xeb, 0x01, 0x00, 0x00,
  0x10, 0x00, 0x00, 0x00, 0xde, 0xfa, 0xff, 0xff, 0x04, 0x00, 0x00, 0x00,
  0x0c, 0x00, 0x00, 0x00, 0xff, 0xff, 0xff, 0xff, 0xe4, 0x03, 0x00, 0x00,
  0x08, 0x00, 0x00, 0x00, 0xf6, 0xfa, 0xff, 0xff, 0x04, 0x00, 0x00, 0x00,
  0x0c, 0x00, 0x00, 0x00, 0xff, 0xff, 0xff, 0xff, 0xc9, 0x07, 0x00, 0x00,
  0x08, 0x00, 0x00, 0x00, 0x0e, 0xfb, 0xff, 0xff, 0x04, 0x00, 0x00, 0x00,
  0x04, 0x00, 0x00, 0x00, 0xfd, 0xff, 0xff, 0xff, 0xa8, 0xe0, 0xff, 0xff,
  0x22, 0xfb, 0xff, 0xff, 0x04, 0x00, 0x00, 0x00, 0x04, 0x00, 0x00, 0x00,
  0x40, 0x1f, 0x00, 0x00, 0x32, 0xfb, 0xff, 0xff, 0x04, 0x00, 0x00, 0x00,
  0x04, 0x00, 0x00, 0x00, 0x01, 0x00, 0x00, 0x00, 0x42, 0xfb, 0xff, 0xff,
  0x04, 0x00, 0x00, 0x00, 0x04, 0x00, 0x00, 0x00, 0x00, 0x00, 0x00, 0x00,
  0xdc, 0xe0, 0xff, 0xff, 0xe0, 0xe0, 0xff, 0xff, 0x0f, 0x00, 0x00, 0x00,
  0x4d, 0x4c, 0x49, 0x52, 0x20, 0x43, 0x6f, 0x6e, 0x76, 0x65, 0x72, 0x74,
  0x65, 0x64, 0x2e, 0x00, 0x01, 0x00, 0x00, 0x00, 0x14, 0x00, 0x00, 0x00,
  0x00, 0x00, 0x0e, 0x00, 0x18, 0x00, 0x14, 0x00, 0x10, 0x00, 0x0c, 0x00,
  0x08, 0x00, 0x04, 0x00, 0x0e, 0x00, 0x00, 0x00, 0x14, 0x00, 0x00, 0x00,
  0x1c, 0x00, 0x00, 0x00, 0x34, 0x05, 0x00, 0x00, 0x38, 0x05, 0x00, 0x00,
  0x3c, 0x05, 0x00, 0x00, 0x04, 0x00, 0x00, 0x00, 0x6d, 0x61, 0x69, 0x6e,
  0x00, 0x00, 0x00, 0x00, 0x16, 0x00, 0x00, 0x00, 0xe4, 0x04, 0x00, 0x00,
  0x84, 0x04, 0x00, 0x00, 0x30, 0x04, 0x00, 0x00, 0x08, 0x04, 0x00, 0x00,
  0xc8, 0x03, 0x00, 0x00, 0x64, 0x03, 0x00, 0x00, 0x3c, 0x03, 0x00, 0x00,
  0x08, 0x03, 0x00, 0x00, 0xb4, 0x02, 0x00, 0x00, 0x8c, 0x02, 0x00, 0x00,
  0x58, 0x02, 0x00, 0x00, 0x10, 0x02, 0x00, 0x00, 0xe8, 0x01, 0x00, 0x00,
  0xb4, 0x01, 0x00, 0x00, 0x70, 0x01, 0x00, 0x00, 0x48, 0x01, 0x00, 0x00,
  0x14, 0x01, 0x00, 0x00, 0xcc, 0x00, 0x00, 0x00, 0xa4, 0x00, 0x00, 0x00,
  0x70, 0x00, 0x00, 0x00, 0x38, 0x00, 0x00, 0x00, 0x04, 0x00, 0x00, 0x00,
  0x8e, 0xfc, 0xff, 0xff, 0x14, 0x00, 0x00, 0x00, 0x00, 0x00, 0x00, 0x09,
  0x14, 0x00, 0x00, 0x00, 0x18, 0x00, 0x00, 0x00, 0x09, 0x00, 0x00, 0x00,
  0x1e, 0xfc, 0xff, 0xff, 0x00, 0x00, 0x80, 0x3f, 0x01, 0x00, 0x00, 0x00,
  0x28, 0x00, 0x00, 0x00, 0x01, 0x00, 0x00, 0x00, 0x27, 0x00, 0x00, 0x00,
  0xbe, 0xfc, 0xff, 0xff, 0x14, 0x00, 0x00, 0x00, 0x00, 0x00, 0x00, 0x08,
  0x10, 0x00, 0x00, 0x00, 0x14, 0x00, 0x00, 0x00, 0x08, 0x00, 0x00, 0x00,
  0xd8, 0xe1, 0xff, 0xff, 0x01, 0x00, 0x00, 0x00, 0x27, 0x00, 0x00, 0x00,
  0x03, 0x00, 0x00, 0x00, 0x26, 0x00, 0x00, 0x00, 0x0c, 0x00, 0x00, 0x00,
  0x0b, 0x00, 0x00, 0x00, 0xf2, 0xfc, 0xff, 0xff, 0x14, 0x00, 0x00, 0x00,
  0x00, 0x00, 0x00, 0x1b, 0x10, 0x00, 0x00, 0x00, 0x14, 0x00, 0x00, 0x00,
  0x07, 0x00, 0x00, 0x00, 0x0c, 0xe2, 0xff, 0xff, 0x01, 0x00, 0x00, 0x00,
  0x26, 0x00, 0x00, 0x00, 0x02, 0x00, 0x00, 0x00, 0x25, 0x00, 0x00, 0x00,
  0x04, 0x00, 0x00, 0x00, 0xe2, 0xfc, 0xff, 0xff, 0x0c, 0x00, 0x00, 0x00,
  0x10, 0x00, 0x00, 0x00, 0x03, 0x00, 0x00, 0x00, 0x01, 0x00, 0x00, 0x00,
  0x25, 0x00, 0x00, 0x00, 0x02, 0x00, 0x00, 0x00, 0x24, 0x00, 0x00, 0x00,
  0x0a, 0x00, 0x00, 0x00, 0x46, 0xfd, 0xff, 0xff, 0x14, 0x00, 0x00, 0x00,
  0x00, 0x00, 0x00, 0x01, 0x20, 0x00, 0x00, 0x00, 0x24, 0x00, 0x00, 0x00,
  0x05, 0x00, 0x00, 0x00, 0x98, 0xfd, 0xff, 0xff, 0x00, 0x00, 0x00, 0x01,
  0x01, 0x00, 0x00, 0x00, 0x01, 0x00, 0x00, 0x00, 0x00, 0x00, 0x00, 0x01,
  0x01, 0x00, 0x00, 0x00, 0x24, 0x00, 0x00, 0x00, 0x03, 0x00, 0x00, 0x00,
  0x23, 0x00, 0x00, 0x00, 0x0e, 0x00, 0x00, 0x00, 0x0d, 0x00, 0x00, 0x00,
  0x8a, 0xfd, 0xff, 0xff, 0x14, 0x00, 0x00, 0x00, 0x00, 0x00, 0x00, 0x34,
  0x10, 0x00, 0x00, 0x00, 0x14, 0x00, 0x00, 0x00, 0x04, 0x00, 0x00, 0x00,
  0xa4, 0xe2, 0xff, 0xff, 0x01, 0x00, 0x00, 0x00, 0x23, 0x00, 0x00, 0x00,
  0x02, 0x00, 0x00, 0x00, 0x22, 0x00, 0x00, 0x00, 0x05, 0x00, 0x00, 0x00,
  0x7a, 0xfd, 0xff, 0xff, 0x0c, 0x00, 0x00, 0x00, 0x10, 0x00, 0x00, 0x00,
  0x03, 0x00, 0x00, 0x00, 0x01, 0x00, 0x00, 0x00, 0x22, 0x00, 0x00, 0x00,
  0x02, 0x00, 0x00, 0x00, 0x21, 0x00, 0x00, 0x00, 0x09, 0x00, 0x00, 0x00,
  0xde, 0xfd, 0xff, 0xff, 0x14, 0x00, 0x00, 0x00, 0x00, 0x00, 0x00, 0x05,
  0x24, 0x00, 0x00, 0x00, 0x28, 0x00, 0x00, 0x00, 0x06, 0x00, 0x00, 0x00,
  0xd2, 0xfe, 0xff, 0xff, 0x01, 0x00, 0x00, 0x00, 0x02, 0x00, 0x00, 0x00,
  0x01, 0x00, 0x00, 0x00, 0x02, 0x00, 0x00, 0x00, 0x00, 0x00, 0x00, 0x01,
  0x01, 0x00, 0x00, 0x00, 0x21, 0x00, 0x00, 0x00, 0x01, 0x00, 0x00, 0x00,
  0x20, 0x00, 0x00, 0x00, 0x1e, 0xfe, 0xff, 0xff, 0x14, 0x00, 0x00, 0x00,
  0x00, 0x00, 0x00, 0x34, 0x10, 0x00, 0x00, 0x00, 0x14, 0x00, 0x00, 0x00,
  0x04, 0x00, 0x00, 0x00, 0x38, 0xe3, 0xff, 0xff, 0x01, 0x00, 0x00, 0x00,
  0x20, 0x00, 0x00, 0x00, 0x02, 0x00, 0x00, 0x00, 0x1f, 0x00, 0x00, 0x00,
  0x04, 0x00, 0x00, 0x00, 0x0e, 0xfe, 0xff, 0xff, 0x0c, 0x00, 0x00, 0x00,
  0x10, 0x00, 0x00, 0x00, 0x03, 0x00, 0x00, 0x00, 0x01, 0x00, 0x00, 0x00,
  0x1f, 0x00, 0x00, 0x00, 0x02, 0x00, 0x00, 0x00, 0x1e, 0x00, 0x00, 0x00,
  0x08, 0x00, 0x00, 0x00, 0x72, 0xfe, 0xff, 0xff, 0x14, 0x00, 0x00, 0x00,
  0x00, 0x00, 0x00, 0x01, 0x20, 0x00, 0x00, 0x00, 0x24, 0x00, 0x00, 0x00,
  0x05, 0x00, 0x00, 0x00, 0xc4, 0xfe, 0xff, 0xff, 0x00, 0x00, 0x00, 0x01,
  0x01, 0x00, 0x00, 0x00, 0x02, 0x00, 0x00, 0x00, 0x00, 0x00, 0x00, 0x01,
  0x01, 0x00, 0x00, 0x00, 0x1e, 0x00, 0x00, 0x00, 0x03, 0x00, 0x00, 0x00,
  0x1d, 0x00, 0x00, 0x00, 0x10, 0x00, 0x00, 0x00, 0x0f, 0x00, 0x00, 0x00,
  0xb6, 0xfe, 0xff, 0xff, 0x14, 0x00, 0x00, 0x00, 0x00, 0x00, 0x00, 0x34,
  0x10, 0x00, 0x00, 0x00, 0x14, 0x00, 0x00, 0x00, 0x04, 0x00, 0x00, 0x00,
  0xd0, 0xe3, 0xff, 0xff, 0x01, 0x00, 0x00, 0x00, 0x1d, 0x00, 0x00, 0x00,
  0x02, 0x00, 0x00, 0x00, 0x1c, 0x00, 0x00, 0x00, 0x05, 0x00, 0x00, 0x00,
  0xa6, 0xfe, 0xff, 0xff, 0x0c, 0x00, 0x00, 0x00, 0x10, 0x00, 0x00, 0x00,
  0x03, 0x00, 0x00, 0x00, 0x01, 0x00, 0x00, 0x00, 0x1c, 0x00, 0x00, 0x00,
  0x02, 0x00, 0x00, 0x00, 0x1b, 0x00, 0x00, 0x00, 0x07, 0x00, 0x00, 0x00,
  0x5a, 0xfe, 0xff, 0xff, 0x24, 0x00, 0x00, 0x00, 0x00, 0x00, 0x00, 0x05,
  0x34, 0x00, 0x00, 0x00, 0x38, 0x00, 0x00, 0x00, 0x06, 0x00, 0x00, 0x00,
  0x00, 0x00, 0x0e, 0x00, 0x18, 0x00, 0x17, 0x00, 0x10, 0x00, 0x0c, 0x00,
  0x08, 0x00, 0x04, 0x00, 0x0e, 0x00, 0x00, 0x00, 0x01, 0x00, 0x00, 0x00,
  0x02, 0x00, 0x00, 0x00, 0x01, 0x00, 0x00, 0x00, 0x02, 0x00, 0x00, 0x00,
  0x00, 0x00, 0x00, 0x01, 0x01, 0x00, 0x00, 0x00, 0x1b, 0x00, 0x00, 0x00,
  0x01, 0x00, 0x00, 0x00, 0x1a, 0x00, 0x00, 0x00, 0x5a, 0xff, 0xff, 0xff,
  0x14, 0x00, 0x00, 0x00, 0x00, 0x00, 0x00, 0x34, 0x10, 0x00, 0x00, 0x00,
  0x14, 0x00, 0x00, 0x00, 0x04, 0x00, 0x00, 0x00, 0x74, 0xe4, 0xff, 0xff,
  0x01, 0x00, 0x00, 0x00, 0x1a, 0x00, 0x00, 0x00, 0x02, 0x00, 0x00, 0x00,
  0x19, 0x00, 0x00, 0x00, 0x04, 0x00, 0x00, 0x00, 0x4a, 0xff, 0xff, 0xff,
  0x0c, 0x00, 0x00, 0x00, 0x10, 0x00, 0x00, 0x00, 0x03, 0x00, 0x00, 0x00,
  0x01, 0x00, 0x00, 0x00, 0x19, 0x00, 0x00, 0x00, 0x02, 0x00, 0x00, 0x00,
  0x18, 0x00, 0x00, 0x00, 0x06, 0x00, 0x00, 0x00, 0xae, 0xff, 0xff, 0xff,
  0x20, 0x00, 0x00, 0x00, 0x00, 0x00, 0x00, 0x01, 0x2c, 0x00, 0x00, 0x00,
  0x30, 0x00, 0x00, 0x00, 0x05, 0x00, 0x00, 0x00, 0x0c, 0x00, 0x14, 0x00,
  0x13, 0x00, 0x0c, 0x00, 0x08, 0x00, 0x07, 0x00, 0x0c, 0x00, 0x00, 0x00,
  0x00, 0x00, 0x00, 0x01, 0x01, 0x00, 0x00, 0x00, 0x04, 0x00, 0x00, 0x00,
  0x00, 0x00, 0x00, 0x01, 0x01, 0x00, 0x00, 0x00, 0x18, 0x00, 0x00, 0x00,
  0x03, 0x00, 0x00, 0x00, 0x17, 0x00, 0x00, 0x00, 0x12, 0x00, 0x00, 0x00,
  0x11, 0x00, 0x00, 0x00, 0x00, 0x00, 0x0e, 0x00, 0x18, 0x00, 0x14, 0x00,
  0x10, 0x00, 0x0c, 0x00, 0x0b, 0x00, 0x04, 0x00, 0x0e, 0x00, 0x00, 0x00,
  0x14, 0x00, 0x00, 0x00, 0x00, 0x00, 0x00, 0x34, 0x10, 0x00, 0x00, 0x00,
  0x14, 0x00, 0x00, 0x00, 0x04, 0x00, 0x00, 0x00, 0x28, 0xe5, 0xff, 0xff,
  0x01, 0x00, 0x00, 0x00, 0x17, 0x00, 0x00, 0x00, 0x02, 0x00, 0x00, 0x00,
  0x16, 0x00, 0x00, 0x00, 0x05, 0x00, 0x00, 0x00, 0x00, 0x00, 0x0a, 0x00,
  0x10, 0x00, 0x0c, 0x00, 0x08, 0x00, 0x04, 0x00, 0x0a, 0x00, 0x00, 0x00,
  0x0c, 0x00, 0x00, 0x00, 0x10, 0x00, 0x00, 0x00, 0x03, 0x00, 0x00, 0x00,
  0x01, 0x00, 0x00, 0x00, 0x16, 0x00, 0x00, 0x00, 0x02, 0x00, 0x00, 0x00,
  0x00, 0x00, 0x00, 0x00, 0x15, 0x00, 0x00, 0x00, 0xbe, 0xff, 0xff, 0xff,
  0x1c, 0x00, 0x00, 0x00, 0x00, 0x00, 0x00, 0x3b, 0x1c, 0x00, 0x00, 0x00,
  0x20, 0x00, 0x00, 0x00, 0x02, 0x00, 0x00, 0x00, 0x00, 0x00, 0x06, 0x00,
  0x08, 0x00, 0x04, 0x00, 0x06, 0x00, 0x00, 0x00, 0x03, 0x00, 0x00, 0x00,
  0x01, 0x00, 0x00, 0x00, 0x15, 0x00, 0x00, 0x00, 0x03, 0x00, 0x00, 0x00,
  0x14, 0x00, 0x00, 0x00, 0x03, 0x00, 0x00, 0x00, 0x04, 0x00, 0x00, 0x00,
  0x00, 0x00, 0x0e, 0x00, 0x1a, 0x00, 0x14, 0x00, 0x10, 0x00, 0x0c, 0x00,
  0x0b, 0x00, 0x04, 0x00, 0x0e, 0x00, 0x00, 0x00, 0x24, 0x00, 0x00, 0x00,
  0x00, 0x00, 0x00, 0x20, 0x24, 0x00, 0x00, 0x00, 0x28, 0x00, 0x00, 0x00,
  0x01, 0x00, 0x00, 0x00, 0x00, 0x00, 0x0e, 0x00, 0x08, 0x00, 0x00, 0x00,
  0x00, 0x00, 0x00, 0x00, 0x00, 0x00, 0x04, 0x00, 0x0e, 0x00, 0x00, 0x00,
  0x01, 0x00, 0x00, 0x00, 0x01, 0x00, 0x00, 0x00, 0x14, 0x00, 0x00, 0x00,
  0x04, 0x00, 0x00, 0x00, 0x13, 0x00, 0x00, 0x00, 0x01, 0x00, 0x00, 0x00,
  0x02, 0x00, 0x00, 0x00, 0x02, 0x00, 0x00, 0x00, 0x00, 0x00, 0x0e, 0x00,
  0x16, 0x00, 0x00, 0x00, 0x10, 0x00, 0x0c, 0x00, 0x0b, 0x00, 0x04, 0x00,
  0x0e, 0x00, 0x00, 0x00, 0x18, 0x00, 0x00, 0x00, 0x00, 0x00, 0x00, 0x37,
  0x18, 0x00, 0x00, 0x00, 0x1c, 0x00, 0x00, 0x00, 0x00, 0x00, 0x06, 0x00,
  0x08, 0x00, 0x07, 0x00, 0x06, 0x00, 0x00, 0x00, 0x00, 0x00, 0x00, 0x02,
  0x01, 0x00, 0x00, 0x00, 0x13, 0x00, 0x00, 0x00, 0x01, 0x00, 0x00, 0x00,
  0x00, 0x00, 0x00, 0x00, 0x01, 0x00, 0x00, 0x00, 0x28, 0x00, 0x00, 0x00,
  0x01, 0x00, 0x00, 0x00, 0x00, 0x00, 0x00, 0x00, 0x29, 0x00, 0x00, 0x00,
  0xd8, 0x19, 0x00, 0x00, 0x7c, 0x19, 0x00, 0x00, 0x24, 0x19, 0x00, 0x00,
  0xe8, 0x18, 0x00, 0x00, 0xac, 0x18, 0x00, 0x00, 0x70, 0x18, 0x00, 0x00,
  0x30, 0x18, 0x00, 0x00, 0xf0, 0x17, 0x00, 0x00, 0xb0, 0x17, 0x00, 0x00,
  0x70, 0x17, 0x00, 0x00, 0x30, 0x17, 0x00, 0x00, 0x78, 0x16, 0x00, 0x00,
  0xbc, 0x15, 0x00, 0x00, 0xe8, 0x13, 0x00, 0x00, 0x04, 0x12, 0x00, 0x00,
  0xf0, 0x10, 0x00, 0x00, 0xcc, 0x0f, 0x00, 0x00, 0x18, 0x0f, 0x00, 0x00,
  0x54, 0x0e, 0x00, 0x00, 0x04, 0x0e, 0x00, 0x00, 0xb0, 0x0d, 0x00, 0x00,
  0x58, 0x0d, 0x00, 0x00, 0xd0, 0x0c, 0x00, 0x00, 0x30, 0x0c, 0x00, 0x00,
  0x34, 0x0b, 0x00, 0x00, 0x64, 0x0a, 0x00, 0x00, 0xbc, 0x09, 0x00, 0x00,
  0x20, 0x09, 0x00, 0x00, 0x88, 0x08, 0x00, 0x00, 0xe8, 0x07, 0x00, 0x00,
  0xe4, 0x06, 0x00, 0x00, 0x0c, 0x06, 0x00, 0x00, 0x64, 0x05, 0x00, 0x00,
  0xc8, 0x04, 0x00, 0x00, 0x28, 0x04, 0x00, 0x00, 0x88, 0x03, 0x00, 0x00,
  0x84, 0x02, 0x00, 0x00, 0xac, 0x01, 0x00, 0x00, 0x1c, 0x01, 0x00, 0x00,
  0x80, 0x00, 0x00, 0x00, 0x04, 0x00, 0x00, 0x00, 0xe2, 0xe6, 0xff, 0xff,
  0x00, 0x00, 0x00, 0x01, 0x18, 0x00, 0x00, 0x00, 0x20, 0x00, 0x00, 0x00,
  0x3c, 0x00, 0x00, 0x00, 0x29, 0x00, 0x00, 0x00, 0x00, 0x00, 0x00, 0x09,
  0x50, 0x00, 0x00, 0x00, 0x02, 0x00, 0x00, 0x00, 0xff, 0xff, 0xff, 0xff,
  0x08, 0x00, 0x00, 0x00, 0xcc, 0xe6, 0xff, 0xff, 0x08, 0x00, 0x00, 0x00,
  0x10, 0x00, 0x00, 0x00, 0x01, 0x00, 0x00, 0x00, 0x80, 0xff, 0xff, 0xff,
  0xff, 0xff, 0xff, 0xff, 0x01, 0x00, 0x00, 0x00, 0x00, 0x00, 0x80, 0x3b,
  0x1b, 0x00, 0x00, 0x00, 0x53, 0x74, 0x61, 0x74, 0x65, 0x66, 0x75, 0x6c,
  0x50, 0x61, 0x72, 0x74, 0x69, 0x74, 0x69, 0x6f, 0x6e, 0x65, 0x64, 0x43,
  0x61, 0x6c, 0x6c, 0x5f, 0x31, 0x3a, 0x30, 0x00, 0x02, 0x00, 0x00, 0x00,
  0x01, 0x00, 0x00, 0x00, 0x08, 0x00, 0x00, 0x00, 0x5a, 0xe7, 0xff, 0xff,
  0x00, 0x00, 0x00, 0x01, 0x18, 0x00, 0x00, 0x00, 0x20, 0x00, 0x00, 0x00,
  0x3c, 0x00, 0x00, 0x00, 0x28, 0x00, 0x00, 0x00, 0x00, 0x00, 0x00, 0x09,
  0x70, 0x00, 0x00, 0x00, 0x02, 0x00, 0x00, 0x00, 0xff, 0xff, 0xff, 0xff,
  0x08, 0x00, 0x00, 0x00, 0x44, 0xe7, 0xff, 0xff, 0x08, 0x00, 0x00, 0x00,
  0x10, 0x00, 0x00, 0x00, 0x01, 0x00, 0x00, 0x00, 0x2d, 0x00, 0x00, 0x00,
  0x00, 0x00, 0x00, 0x00, 0x01, 0x00, 0x00, 0x00, 0xc6, 0x5b, 0xc2, 0x3e,
  0x38, 0x00, 0x00, 0x00, 0x73, 0x65, 0x71, 0x75, 0x65, 0x6e, 0x74, 0x69,
  0x61, 0x6c, 0x5f, 0x31, 0x2f, 0x64, 0x65, 0x6e, 0x73, 0x65, 0x5f, 0x31,
  0x2f, 0x4d, 0x61, 0x74, 0x4d, 0x75, 0x6c, 0x3b, 0x73, 0x65, 0x71, 0x75,
  0x65, 0x6e, 0x74, 0x69, 0x61, 0x6c, 0x5f, 0x31, 0x2f, 0x64, 0x65, 0x6e,
  0x73, 0x65, 0x5f, 0x31, 0x2f, 0x42, 0x69, 0x61, 0x73, 0x41, 0x64, 0x64,
  0x00, 0x00, 0x00, 0x00, 0x02, 0x00, 0x00, 0x00, 0x01, 0x00, 0x00, 0x00,
  0x08, 0x00, 0x00, 0x00, 0xf2, 0xe7, 0xff, 0xff, 0x00, 0x00, 0x00, 0x01,
  0x18, 0x00, 0x00, 0x00, 0x20, 0x00, 0x00, 0x00, 0x3c, 0x00, 0x00, 0x00,
  0x27, 0x00, 0x00, 0x00, 0x00, 0x00, 0x00, 0x09, 0x64, 0x00, 0x00, 0x00,
  0x02, 0x00, 0x00, 0x00, 0xff, 0xff, 0xff, 0xff, 0x20, 0x00, 0x00, 0x00,
  0xdc, 0xe7, 0xff, 0xff, 0x08, 0x00, 0x00, 0x00, 0x10, 0x00, 0x00, 0x00,
  0x01, 0x00, 0x00, 0x00, 0x80, 0xff, 0xff, 0xff, 0xff, 0xff, 0xff, 0xff,
  0x01, 0x00, 0x00, 0x00, 0x2f, 0x4c, 0x3d, 0x3e, 0x2c, 0x00, 0x00, 0x00,
  0x73, 0x65, 0x71, 0x75, 0x65, 0x6e, 0x74, 0x69, 0x61, 0x6c, 0x5f, 0x31,
  0x2f, 0x67, 0x6c, 0x6f, 0x62, 0x61, 0x6c, 0x5f, 0x61, 0x76, 0x65, 0x72,
  0x61, 0x67, 0x65, 0x5f, 0x70, 0x6f, 0x6f, 0x6c, 0x69, 0x6e, 0x67, 0x31,
  0x64, 0x5f, 0x31, 0x2f, 0x4d, 0x65, 0x61, 0x6e, 0x00, 0x00, 0x00, 0x00,
  0x02, 0x00, 0x00, 0x00, 0x01, 0x00, 0x00, 0x00, 0x20, 0x00, 0x00, 0x00,
  0x7e, 0xe8, 0xff, 0xff, 0x00, 0x00, 0x00, 0x01, 0x18, 0x00, 0x00, 0x00,
  0x24, 0x00, 0x00, 0x00, 0x44, 0x00, 0x00, 0x00, 0x26, 0x00, 0x00, 0x00,
  0x00, 0x00, 0x00, 0x09, 0xa8, 0x00, 0x00, 0x00, 0x03, 0x00, 0x00, 0x00,
  0xff, 0xff, 0xff, 0xff, 0xee, 0x00, 0x00, 0x00, 0x20, 0x00, 0x00, 0x00,
  0x6c, 0xe8, 0xff, 0xff, 0x08, 0x00, 0x00, 0x00, 0x14, 0x00, 0x00, 0x00,
  0x01, 0x00, 0x00, 0x00, 0x80, 0xff, 0xff, 0xff, 0xff, 0xff, 0xff, 0xff,
  0x00, 0x00, 0x00, 0x00, 0x01, 0x00, 0x00, 0x00, 0x91, 0x79, 0x9b, 0x3f,
  0x69, 0x00, 0x00, 0x00, 0x73, 0x65, 0x71, 0x75, 0x65, 0x6e, 0x74, 0x69,
  0x61, 0x6c, 0x5f, 0x31, 0x2f, 0x63, 0x6f, 0x6e, 0x76, 0x31, 0x64, 0x5f,
  0x32, 0x5f, 0x31, 0x2f, 0x52, 0x65, 0x6c, 0x75, 0x3b, 0x73, 0x65, 0x71,
  0x75, 0x65, 0x6e, 0x74, 0x69, 0x61, 0x6c, 0x5f, 0x31, 0x2f, 0x63, 0x6f,
  0x6e, 0x76, 0x31, 0x64, 0x5f, 0x32, 0x5f, 0x31, 0x2f, 0x42, 0x69, 0x61,
  0x73, 0x41, 0x64, 0x64, 0x3b, 0x73, 0x65, 0x71, 0x75, 0x65, 0x6e, 0x74,
  0x69, 0x61, 0x6c, 0x5f, 0x31, 0x2f, 0x63, 0x6f, 0x6e, 0x76, 0x31, 0x64,
  0x5f, 0x32, 0x5f, 0x31, 0x2f, 0x63, 0x6f, 0x6e, 0x76, 0x6f, 0x6c, 0x75,
  0x74, 0x69, 0x6f, 0x6e, 0x2f, 0x53, 0x71, 0x75, 0x65, 0x65, 0x7a, 0x65,
  0x3b, 0x00, 0x00, 0x00, 0x03, 0x00, 0x00, 0x00, 0x01, 0x00, 0x00, 0x00,
  0xee, 0x00, 0x00, 0x00, 0x20, 0x00, 0x00, 0x00, 0x52, 0xe9, 0xff, 0xff,
  0x00, 0x00, 0x00, 0x01, 0x18, 0x00, 0x00, 0x00, 0x28, 0x00, 0x00, 0x00,
  0x48, 0x00, 0x00, 0x00, 0x25, 0x00, 0x00, 0x00, 0x00, 0x00, 0x00, 0x09,
  0xd0, 0x00, 0x00, 0x00, 0x04, 0x00, 0x00, 0x00, 0xff, 0xff, 0xff, 0xff,
  0x01, 0x00, 0x00, 0x00, 0xee, 0x00, 0x00, 0x00, 0x20, 0x00, 0x00, 0x00,
  0x44, 0xe9, 0xff, 0xff, 0x08, 0x00, 0x00, 0x00, 0x14, 0x00, 0x00, 0x00,
  0x01, 0x00, 0x00, 0x00, 0x80, 0xff, 0xff, 0xff, 0xff, 0xff, 0xff, 0xff,
  0x00, 0x00, 0x00, 0x00, 0x01, 0x00, 0x00, 0x00, 0x91, 0x79, 0x9b, 0x3f,
  0x8d, 0x00, 0x00, 0x00, 0x73, 0x65, 0x71, 0x75, 0x65, 0x6e, 0x74, 0x69,
  0x61, 0x6c, 0x5f, 0x31, 0x2f, 0x63, 0x6f, 0x6e, 0x76, 0x31, 0x64, 0x5f,
  0x32, 0x5f, 0x31, 0x2f, 0x52, 0x65, 0x6c, 0x75, 0x3b, 0x73, 0x65, 0x71,
  0x75, 0x65, 0x6e, 0x74, 0x69, 0x61, 0x6c, 0x5f, 0x31, 0x2f, 0x63, 0x6f,
  0x6e, 0x76, 0x31, 0x64, 0x5f, 0x32, 0x5f, 0x31, 0x2f, 0x42, 0x69, 0x61,
  0x73, 0x41, 0x64, 0x64, 0x3b, 0x73, 0x65, 0x71, 0x75, 0x65, 0x6e, 0x74,
  0x69, 0x61, 0x6c, 0x5f, 0x31, 0x2f, 0x63, 0x6f, 0x6e, 0x76, 0x31, 0x64,
  0x5f, 0x32, 0x5f, 0x31, 0x2f, 0x63, 0x6f, 0x6e, 0x76, 0x6f, 0x6c, 0x75,
  0x74, 0x69, 0x6f, 0x6e, 0x2f, 0x53, 0x71, 0x75, 0x65, 0x65, 0x7a, 0x65,
  0x3b, 0x3b, 0x73, 0x65, 0x71, 0x75, 0x65, 0x6e, 0x74, 0x69, 0x61, 0x6c,
  0x5f, 0x31, 0x2f, 0x63, 0x6f, 0x6e, 0x76, 0x31, 0x64, 0x5f, 0x32, 0x5f,
  0x31, 0x2f, 0x63, 0x6f, 0x6e, 0x76, 0x6f, 0x6c, 0x75, 0x74, 0x69, 0x6f,
  0x6e, 0x00, 0x00, 0x00, 0x04, 0x00, 0x00, 0x00, 0x01, 0x00, 0x00, 0x00,
  0x01, 0x00, 0x00, 0x00, 0xee, 0x00, 0x00, 0x00, 0x20, 0x00, 0x00, 0x00,
  0x52, 0xea, 0xff, 0xff, 0x00, 0x00, 0x00, 0x01, 0x18, 0x00, 0x00, 0x00,
  0x28, 0x00, 0x00, 0x00, 0x44, 0x00, 0x00, 0x00, 0x24, 0x00, 0x00, 0x00,
  0x00, 0x00, 0x00, 0x09, 0x6c, 0x00, 0x00, 0x00, 0x04, 0x00, 0x00, 0x00,
  0xff, 0xff, 0xff, 0xff, 0x01, 0x00, 0x00, 0x00, 0xf5, 0x00, 0x00, 0x00,
  0x10, 0x00, 0x00, 0x00, 0x44, 0xea, 0xff, 0xff, 0x08, 0x00, 0x00, 0x00,
  0x10, 0x00, 0x00, 0x00, 0x01, 0x00, 0x00, 0x00, 0x80, 0xff, 0xff, 0xff,
  0xff, 0xff, 0xff, 0xff, 0x01, 0x00, 0x00, 0x00, 0x65, 0xc6, 0x05, 0x3f,
  0x2e, 0x00, 0x00, 0x00, 0x73, 0x65, 0x71, 0x75, 0x65, 0x6e, 0x74, 0x69,
  0x61, 0x6c, 0x5f, 0x31, 0x2f, 0x63, 0x6f, 0x6e, 0x76, 0x31, 0x64, 0x5f,
  0x32, 0x5f, 0x31, 0x2f, 0x63, 0x6f, 0x6e, 0x76, 0x6f, 0x6c, 0x75, 0x74,
  0x69, 0x6f, 0x6e, 0x2f, 0x45, 0x78, 0x70, 0x61, 0x6e, 0x64, 0x44, 0x69,
  0x6d, 0x73, 0x00, 0x00, 0x04, 0x00, 0x00, 0x00, 0x01, 0x00, 0x00, 0x00,
  0x01, 0x00, 0x00, 0x00, 0xf5, 0x00, 0x00, 0x00, 0x10, 0x00, 0x00, 0x00,
  0xee, 0xea, 0xff, 0xff, 0x00, 0x00, 0x00, 0x01, 0x18, 0x00, 0x00, 0x00,
  0x24, 0x00, 0x00, 0x00, 0x44, 0x00, 0x00, 0x00, 0x23, 0x00, 0x00, 0x00,
  0x00, 0x00, 0x00, 0x09, 0x70, 0x00, 0x00, 0x00, 0x03, 0x00, 0x00, 0x00,
  0xff, 0xff, 0xff, 0xff, 0xf5, 0x00, 0x00, 0x00, 0x10, 0x00, 0x00, 0x00,
  0xdc, 0xea, 0xff, 0xff, 0x08, 0x00, 0x00, 0x00, 0x14, 0x00, 0x00, 0x00,
  0x01, 0x00, 0x00, 0x00, 0x80, 0xff, 0xff, 0xff, 0xff, 0xff, 0xff, 0xff,
  0x00, 0x00, 0x00, 0x00, 0x01, 0x00, 0x00, 0x00, 0x65, 0xc6, 0x05, 0x3f,
  0x30, 0x00, 0x00, 0x00, 0x73, 0x65, 0x71, 0x75, 0x65, 0x6e, 0x74, 0x69,
  0x61, 0x6c, 0x5f, 0x31, 0x2f, 0x6d, 0x61, 0x78, 0x5f, 0x70, 0x6f, 0x6f,
  0x6c, 0x69, 0x6e, 0x67, 0x31, 0x64, 0x5f, 0x31, 0x5f, 0x32, 0x2f, 0x4d,
  0x61, 0x78, 0x50, 0x6f, 0x6f, 0x6c, 0x31, 0x64, 0x2f, 0x53, 0x71, 0x75,
  0x65, 0x65, 0x7a, 0x65, 0x00, 0x00, 0x00, 0x00, 0x03, 0x00, 0x00, 0x00,
  0x01, 0x00, 0x00, 0x00, 0xf5, 0x00, 0x00, 0x00, 0x10, 0x00, 0x00, 0x00,
  0x8a, 0xeb, 0xff, 0xff, 0x00, 0x00, 0x00, 0x01, 0x18, 0x00, 0x00, 0x00,
  0x28, 0x00, 0x00, 0x00, 0x44, 0x00, 0x00, 0x00, 0x22, 0x00, 0x00, 0x00,
  0x00, 0x00, 0x00, 0x09, 0x68, 0x00, 0x00, 0x00, 0x04, 0x00, 0x00, 0x00,
  0xff, 0xff, 0xff, 0xff, 0x01, 0x00, 0x00, 0x00, 0xf5, 0x00, 0x00, 0x00,
  0x10, 0x00, 0x00, 0x00, 0x7c, 0xeb, 0xff, 0xff, 0x08, 0x00, 0x00, 0x00,
  0x10, 0x00, 0x00, 0x00, 0x01, 0x00, 0x00, 0x00, 0x80, 0xff, 0xff, 0xff,
  0xff, 0xff, 0xff, 0xff, 0x01, 0x00, 0x00, 0x00, 0x65, 0xc6, 0x05, 0x3f,
  0x28, 0x00, 0x00, 0x00, 0x73, 0x65, 0x71, 0x75, 0x65, 0x6e, 0x74, 0x69,
  0x61, 0x6c, 0x5f, 0x31, 0x2f, 0x6d, 0x61, 0x78, 0x5f, 0x70, 0x6f, 0x6f,
  0x6c, 0x69, 0x6e, 0x67, 0x31, 0x64, 0x5f, 0x31, 0x5f, 0x32, 0x2f, 0x4d,
  0x61, 0x78, 0x50, 0x6f, 0x6f, 0x6c, 0x31, 0x64, 0x00, 0x00, 0x00, 0x00,
  0x04, 0x00, 0x00, 0x00, 0x01, 0x00, 0x00, 0x00, 0x01, 0x00, 0x00, 0x00,
  0xf5, 0x00, 0x00, 0x00, 0x10, 0x00, 0x00, 0x00, 0x22, 0xec, 0xff, 0xff,
  0x00, 0x00, 0x00, 0x01, 0x18, 0x00, 0x00, 0x00, 0x28, 0x00, 0x00, 0x00,
  0x48, 0x00, 0x00, 0x00, 0x21, 0x00, 0x00, 0x00, 0x00, 0x00, 0x00, 0x09,
  0x74, 0x00, 0x00, 0x00, 0x04, 0x00, 0x00, 0x00, 0xff, 0xff, 0xff, 0xff,
  0x01, 0x00, 0x00, 0x00, 0xeb, 0x01, 0x00, 0x00, 0x10, 0x00, 0x00, 0x00,
  0x14, 0xec, 0xff, 0xff, 0x08, 0x00, 0x00, 0x00, 0x14, 0x00, 0x00, 0x00,
  0x01, 0x00, 0x00, 0x00, 0x80, 0xff, 0xff, 0xff, 0xff, 0xff, 0xff, 0xff,
  0x00, 0x00, 0x00, 0x00, 0x01, 0x00, 0x00, 0x00, 0x65, 0xc6, 0x05, 0x3f,
  0x33, 0x00, 0x00, 0x00, 0x73, 0x65, 0x71, 0x75, 0x65, 0x6e, 0x74, 0x69,
  0x61, 0x6c, 0x5f, 0x31, 0x2f, 0x6d, 0x61, 0x78, 0x5f, 0x70, 0x6f, 0x6f,
  0x6c, 0x69, 0x6e, 0x67, 0x31, 0x64, 0x5f, 0x31, 0x5f, 0x32, 0x2f, 0x4d,
  0x61, 0x78, 0x50, 0x6f, 0x6f, 0x6c, 0x31, 0x64, 0x2f, 0x45, 0x78, 0x70,
  0x61, 0x6e, 0x64, 0x44, 0x69, 0x6d, 0x73, 0x00, 0x04, 0x00, 0x00, 0x00,
  0x01, 0x00, 0x00, 0x00, 0x01, 0x00, 0x00, 0x00, 0xeb, 0x01, 0x00, 0x00,
  0x10, 0x00, 0x00, 0x00, 0xc6, 0xec, 0xff, 0xff, 0x00, 0x00, 0x00, 0x01,
  0x18, 0x00, 0x00, 0x00, 0x24, 0x00, 0x00, 0x00, 0x44, 0x00, 0x00, 0x00,
  0x20, 0x00, 0x00, 0x00, 0x00, 0x00, 0x00, 0x09, 0xa8, 0x00, 0x00, 0x00,
  0x03, 0x00, 0x00, 0x00, 0xff, 0xff, 0xff, 0xff, 0xeb, 0x01, 0x00, 0x00,
  0x10, 0x00, 0x00, 0x00, 0xb4, 0xec, 0xff, 0xff, 0x08, 0x00, 0x00, 0x00,
  0x14, 0x00, 0x00, 0x00, 0x01, 0x00, 0x00, 0x00, 0x80, 0xff, 0xff, 0xff,
  0xff, 0xff, 0xff, 0xff, 0x00, 0x00, 0x00, 0x00, 0x01, 0x00, 0x00, 0x00,
  0x65, 0xc6, 0x05, 0x3f, 0x69, 0x00, 0x00, 0x00, 0x73, 0x65, 0x71, 0x75,
  0x65, 0x6e, 0x74, 0x69, 0x61, 0x6c, 0x5f, 0x31, 0x2f, 0x63, 0x6f, 0x6e,
  0x76, 0x31, 0x64, 0x5f, 0x31, 0x5f, 0x32, 0x2f, 0x52, 0x65, 0x6c, 0x75,
  0x3b, 0x73, 0x65, 0x71, 0x75, 0x65, 0x6e, 0x74, 0x69, 0x61, 0x6c, 0x5f,
  0x31, 0x2f, 0x63, 0x6f, 0x6e, 0x76, 0x31, 0x64, 0x5f, 0x31, 0x5f, 0x32,
  0x2f, 0x42, 0x69, 0x61, 0x73, 0x41, 0x64, 0x64, 0x3b, 0x73, 0x65, 0x71,
  0x75, 0x65, 0x6e, 0x74, 0x69, 0x61, 0x6c, 0x5f, 0x31, 0x2f, 0x63, 0x6f,
  0x6e, 0x76, 0x31, 0x64, 0x5f, 0x31, 0x5f, 0x32, 0x2f, 0x63, 0x6f, 0x6e,
  0x76, 0x6f, 0x6c, 0x75, 0x74, 0x69, 0x6f, 0x6e, 0x2f, 0x53, 0x71, 0x75,
  0x65, 0x65, 0x7a, 0x65, 0x3b, 0x00, 0x00, 0x00, 0x03, 0x00, 0x00, 0x00,
  0x01, 0x00, 0x00, 0x00, 0xeb, 0x01, 0x00, 0x00, 0x10, 0x00, 0x00, 0x00,
  0x9a, 0xed, 0xff, 0xff, 0x00, 0x00, 0x00, 0x01, 0x18, 0x00, 0x00, 0x00,
  0x28, 0x00, 0x00, 0x00, 0x48, 0x00, 0x00, 0x00, 0x1f, 0x00, 0x00, 0x00,
  0x00, 0x00, 0x00, 0x09, 0xd0, 0x00, 0x00, 0x00, 0x04, 0x00, 0x00, 0x00,
  0xff, 0xff, 0xff, 0xff, 0x01, 0x00, 0x00, 0x00, 0xeb, 0x01, 0x00, 0x00,
  0x10, 0x00, 0x00, 0x00, 0x8c, 0xed, 0xff, 0xff, 0x08, 0x00, 0x00, 0x00,
  0x14, 0x00, 0x00, 0x00, 0x01, 0x00, 0x00, 0x00, 0x80, 0xff, 0xff, 0xff,
  0xff, 0xff, 0xff, 0xff, 0x00, 0x00, 0x00, 0x00, 0x01, 0x00, 0x00, 0x00,
  0x65, 0xc6, 0x05, 0x3f, 0x8d, 0x00, 0x00, 0x00, 0x73, 0x65, 0x71, 0x75,
  0x65, 0x6e, 0x74, 0x69, 0x61, 0x6c, 0x5f, 0x31, 0x2f, 0x63, 0x6f, 0x6e,
  0x76, 0x31, 0x64, 0x5f, 0x31, 0x5f, 0x32, 0x2f, 0x52, 0x65, 0x6c, 0x75,
  0x3b, 0x73, 0x65, 0x71, 0x75, 0x65, 0x6e, 0x74, 0x69, 0x61, 0x6c, 0x5f,
  0x31, 0x2f, 0x63, 0x6f, 0x6e, 0x76, 0x31, 0x64, 0x5f, 0x31, 0x5f, 0x32,
  0x2f, 0x42, 0x69, 0x61, 0x73, 0x41, 0x64, 0x64, 0x3b, 0x73, 0x65, 0x71,
  0x75, 0x65, 0x6e, 0x74, 0x69, 0x61, 0x6c, 0x5f, 0x31, 0x2f, 0x63, 0x6f,
  0x6e, 0x76, 0x31, 0x64, 0x5f, 0x31, 0x5f, 0x32, 0x2f, 0x63, 0x6f, 0x6e,
  0x76, 0x6f, 0x6c, 0x75, 0x74, 0x69, 0x6f, 0x6e, 0x2f, 0x53, 0x71, 0x75,
  0x65, 0x65, 0x7a, 0x65, 0x3b, 0x3b, 0x73, 0x65, 0x71, 0x75, 0x65, 0x6e,
  0x74, 0x69, 0x61, 0x6c, 0x5f, 0x31, 0x2f, 0x63, 0x6f, 0x6e, 0x76, 0x31,
  0x64, 0x5f, 0x31, 0x5f, 0x32, 0x2f, 0x63, 0x6f, 0x6e, 0x76, 0x6f, 0x6c,
  0x75, 0x74, 0x69, 0x6f, 0x6e, 0x00, 0x00, 0x00, 0x04, 0x00, 0x00, 0x00,
  0x01, 0x00, 0x00, 0x00, 0x01, 0x00, 0x00, 0x00, 0xeb, 0x01, 0x00, 0x00,
  0x10, 0x00, 0x00, 0x00, 0x9a, 0xee, 0xff, 0xff, 0x00, 0x00, 0x00, 0x01,
  0x18, 0x00, 0x00, 0x00, 0x28, 0x00, 0x00, 0x00, 0x44, 0x00, 0x00, 0x00,
  0x1e, 0x00, 0x00, 0x00, 0x00, 0x00, 0x00, 0x09, 0x6c, 0x00, 0x00, 0x00,
  0x04, 0x00, 0x00, 0x00, 0xff, 0xff, 0xff, 0xff, 0x01, 0x00, 0x00, 0x00,
  0xe4, 0x03, 0x00, 0x00, 0x08, 0x00, 0x00, 0x00, 0x8c, 0xee, 0xff, 0xff,
  0x08, 0x00, 0x00, 0x00, 0x10, 0x00, 0x00, 0x00, 0x01, 0x00, 0x00, 0x00,
  0x80, 0xff, 0xff, 0xff, 0xff, 0xff, 0xff, 0xff, 0x01, 0x00, 0x00, 0x00,
  0x40, 0x15, 0x74, 0x3d, 0x2e, 0x00, 0x00, 0x00, 0x73, 0x65, 0x71, 0x75,
  0x65, 0x6e, 0x74, 0x69, 0x61, 0x6c, 0x5f, 0x31, 0x2f, 0x63, 0x6f, 0x6e,
  0x76, 0x31, 0x64, 0x5f, 0x31, 0x5f, 0x32, 0x2f, 0x63, 0x6f, 0x6e, 0x76,
  0x6f, 0x6c, 0x75, 0x74, 0x69, 0x6f, 0x6e, 0x2f, 0x45, 0x78, 0x70, 0x61,
  0x6e, 0x64, 0x44, 0x69, 0x6d, 0x73, 0x00, 0x00, 0x04, 0x00, 0x00, 0x00,
  0x01, 0x00, 0x00, 0x00, 0x01, 0x00, 0x00, 0x00, 0xe4, 0x03, 0x00, 0x00,
  0x08, 0x00, 0x00, 0x00, 0x36, 0xef, 0xff, 0xff, 0x00, 0x00, 0x00, 0x01,
  0x18, 0x00, 0x00, 0x00, 0x24, 0x00, 0x00, 0x00, 0x40, 0x00, 0x00, 0x00,
  0x1d, 0x00, 0x00, 0x00, 0x00, 0x00, 0x00, 0x09, 0x68, 0x00, 0x00, 0x00,
  0x03, 0x00, 0x00, 0x00, 0xff, 0xff, 0xff, 0xff, 0xe4, 0x03, 0x00, 0x00,
  0x08, 0x00, 0x00, 0x00, 0x24, 0xef, 0xff, 0xff, 0x08, 0x00, 0x00, 0x00,
  0x10, 0x00, 0x00, 0x00, 0x01, 0x00, 0x00, 0x00, 0x80, 0xff, 0xff, 0xff,
  0xff, 0xff, 0xff, 0xff, 0x01, 0x00, 0x00, 0x00, 0x40, 0x15, 0x74, 0x3d,
  0x2e, 0x00, 0x00, 0x00, 0x73, 0x65, 0x71, 0x75, 0x65, 0x6e, 0x74, 0x69,
  0x61, 0x6c, 0x5f, 0x31, 0x2f, 0x6d, 0x61, 0x78, 0x5f, 0x70, 0x6f, 0x6f,
  0x6c, 0x69, 0x6e, 0x67, 0x31, 0x64, 0x5f, 0x31, 0x2f, 0x4d, 0x61, 0x78,
  0x50, 0x6f, 0x6f, 0x6c, 0x31, 0x64, 0x2f, 0x53, 0x71, 0x75, 0x65, 0x65,
  0x7a, 0x65, 0x00, 0x00, 0x03, 0x00, 0x00, 0x00, 0x01, 0x00, 0x00, 0x00,
  0xe4, 0x03, 0x00, 0x00, 0x08, 0x00, 0x00, 0x00, 0xca, 0xef, 0xff, 0xff,
  0x00, 0x00, 0x00, 0x01, 0x18, 0x00, 0x00, 0x00, 0x28, 0x00, 0x00, 0x00,
  0x48, 0x00, 0x00, 0x00, 0x1c, 0x00, 0x00, 0x00, 0x00, 0x00, 0x00, 0x09,
  0x68, 0x00, 0x00, 0x00, 0x04, 0x00, 0x00, 0x00, 0xff, 0xff, 0xff, 0xff,
  0x01, 0x00, 0x00, 0x00, 0xe4, 0x03, 0x00, 0x00, 0x08, 0x00, 0x00, 0x00,
  0xbc, 0xef, 0xff, 0xff, 0x08, 0x00, 0x00, 0x00, 0x14, 0x00, 0x00, 0x00,
  0x01, 0x00, 0x00, 0x00, 0x80, 0xff, 0xff, 0xff, 0xff, 0xff, 0xff, 0xff,
  0x00, 0x00, 0x00, 0x00, 0x01, 0x00, 0x00, 0x00, 0x40, 0x15, 0x74, 0x3d,
  0x26, 0x00, 0x00, 0x00, 0x73, 0x65, 0x71, 0x75, 0x65, 0x6e, 0x74, 0x69,
  0x61, 0x6c, 0x5f, 0x31, 0x2f, 0x6d, 0x61, 0x78, 0x5f, 0x70, 0x6f, 0x6f,
  0x6c, 0x69, 0x6e, 0x67, 0x31, 0x64, 0x5f, 0x31, 0x2f, 0x4d, 0x61, 0x78,
  0x50, 0x6f, 0x6f, 0x6c, 0x31, 0x64, 0x00, 0x00, 0x04, 0x00, 0x00, 0x00,
  0x01, 0x00, 0x00, 0x00, 0x01, 0x00, 0x00, 0x00, 0xe4, 0x03, 0x00, 0x00,
  0x08, 0x00, 0x00, 0x00, 0x62, 0xf0, 0xff, 0xff, 0x00, 0x00, 0x00, 0x01,
  0x18, 0x00, 0x00, 0x00, 0x28, 0x00, 0x00, 0x00, 0x48, 0x00, 0x00, 0x00,
  0x1b, 0x00, 0x00, 0x00, 0x00, 0x00, 0x00, 0x09, 0x74, 0x00, 0x00, 0x00,
  0x04, 0x00, 0x00, 0x00, 0xff, 0xff, 0xff, 0xff, 0x01, 0x00, 0x00, 0x00,
  0xc9, 0x07, 0x00, 0x00, 0x08, 0x00, 0x00, 0x00, 0x54, 0xf0, 0xff, 0xff,
  0x08, 0x00, 0x00, 0x00, 0x14, 0x00, 0x00, 0x00, 0x01, 0x00, 0x00, 0x00,
  0x80, 0xff, 0xff, 0xff, 0xff, 0xff, 0xff, 0xff, 0x00, 0x00, 0x00, 0x00,
  0x01, 0x00, 0x00, 0x00, 0x40, 0x15, 0x74, 0x3d, 0x31, 0x00, 0x00, 0x00,
  0x73, 0x65, 0x71, 0x75, 0x65, 0x6e, 0x74, 0x69, 0x61, 0x6c, 0x5f, 0x31,
  0x2f, 0x6d, 0x61, 0x78, 0x5f, 0x70, 0x6f, 0x6f, 0x6c, 0x69, 0x6e, 0x67,
  0x31, 0x64, 0x5f, 0x31, 0x2f, 0x4d, 0x61, 0x78, 0x50, 0x6f, 0x6f, 0x6c,
  0x31, 0x64, 0x2f, 0x45, 0x78, 0x70, 0x61, 0x6e, 0x64, 0x44, 0x69, 0x6d,
  0x73, 0x00, 0x00, 0x00, 0x04, 0x00, 0x00, 0x00, 0x01, 0x00, 0x00, 0x00,
  0x01, 0x00, 0x00, 0x00, 0xc9, 0x07, 0x00, 0x00, 0x08, 0x00, 0x00, 0x00,
  0x06, 0xf1, 0xff, 0xff, 0x00, 0x00, 0x00, 0x01, 0x18, 0x00, 0x00, 0x00,
  0x24, 0x00, 0x00, 0x00, 0x44, 0x00, 0x00, 0x00, 0x1a, 0x00, 0x00, 0x00,
  0x00, 0x00, 0x00, 0x09, 0xa0, 0x00, 0x00, 0x00, 0x03, 0x00, 0x00, 0x00,
  0xff, 0xff, 0xff, 0xff, 0xc9, 0x07, 0x00, 0x00, 0x08, 0x00, 0x00, 0x00,
  0xf4, 0xf0, 0xff, 0xff, 0x08, 0x00, 0x00, 0x00, 0x14, 0x00, 0x00, 0x00,
  0x01, 0x00, 0x00, 0x00, 0x80, 0xff, 0xff, 0xff, 0xff, 0xff, 0xff, 0xff,
  0x00, 0x00, 0x00, 0x00, 0x01, 0x00, 0x00, 0x00, 0x40, 0x15, 0x74, 0x3d,
  0x63, 0x00, 0x00, 0x00, 0x73, 0x65, 0x71, 0x75, 0x65, 0x6e, 0x74, 0x69,
  0x61, 0x6c, 0x5f, 0x31, 0x2f, 0x63, 0x6f, 0x6e, 0x76, 0x31, 0x64, 0x5f,
  0x31, 0x2f, 0x52, 0x65, 0x6c, 0x75, 0x3b, 0x73, 0x65, 0x71, 0x75, 0x65,
  0x6e, 0x74, 0x69, 0x61, 0x6c, 0x5f, 0x31, 0x2f, 0x63, 0x6f, 0x6e, 0x76,
  0x31, 0x64, 0x5f, 0x31, 0x2f, 0x42, 0x69, 0x61, 0x73, 0x41, 0x64, 0x64,
  0x3b, 0x73, 0x65, 0x71, 0x75, 0x65, 0x6e, 0x74, 0x69, 0x61, 0x6c, 0x5f,
  0x31, 0x2f, 0x63, 0x6f, 0x6e, 0x76, 0x31, 0x64, 0x5f, 0x31, 0x2f, 0x63,
  0x6f, 0x6e, 0x76, 0x6f, 0x6c, 0x75, 0x74, 0x69, 0x6f, 0x6e, 0x2f, 0x53,
  0x71, 0x75, 0x65, 0x65, 0x7a, 0x65, 0x3b, 0x00, 0x03, 0x00, 0x00, 0x00,
  0x01, 0x00, 0x00, 0x00, 0xc9, 0x07, 0x00, 0x00, 0x08, 0x00, 0x00, 0x00,
  0xd2, 0xf1, 0xff, 0xff, 0x00, 0x00, 0x00, 0x01, 0x18, 0x00, 0x00, 0x00,
  0x28, 0x00, 0x00, 0x00, 0x48, 0x00, 0x00, 0x00, 0x19, 0x00, 0x00, 0x00,
  0x00, 0x00, 0x00, 0x09, 0xc8, 0x00, 0x00, 0x00, 0x04, 0x00, 0x00, 0x00,
  0xff, 0xff, 0xff, 0xff, 0x01, 0x00, 0x00, 0x00, 0xc9, 0x07, 0x00, 0x00,
  0x08, 0x00, 0x00, 0x00, 0xc4, 0xf1, 0xff, 0xff, 0x08, 0x00, 0x00, 0x00,
  0x14, 0x00, 0x00, 0x00, 0x01, 0x00, 0x00, 0x00, 0x80, 0xff, 0xff, 0xff,
  0xff, 0xff, 0xff, 0xff, 0x00, 0x00, 0x00, 0x00, 0x01, 0x00, 0x00, 0x00,
  0x40, 0x15, 0x74, 0x3d, 0x85, 0x00, 0x00, 0x00, 0x73, 0x65, 0x71, 0x75,
  0x65, 0x6e, 0x74, 0x69, 0x61, 0x6c, 0x5f, 0x31, 0x2f, 0x63, 0x6f, 0x6e,
  0x76, 0x31, 0x64, 0x5f, 0x31, 0x2f, 0x52, 0x65, 0x6c, 0x75, 0x3b, 0x73,
  0x65, 0x71, 0x75, 0x65, 0x6e, 0x74, 0x69, 0x61, 0x6c, 0x5f, 0x31, 0x2f,
  0x63, 0x6f, 0x6e, 0x76, 0x31, 0x64, 0x5f, 0x31, 0x2f, 0x42, 0x69, 0x61,
  0x73, 0x41, 0x64, 0x64, 0x3b, 0x73, 0x65, 0x71, 0x75, 0x65, 0x6e, 0x74,
  0x69, 0x61, 0x6c, 0x5f, 0x31, 0x2f, 0x63, 0x6f, 0x6e, 0x76, 0x31, 0x64,
  0x5f, 0x31, 0x2f, 0x63, 0x6f, 0x6e, 0x76, 0x6f, 0x6c, 0x75, 0x74, 0x69,
  0x6f, 0x6e, 0x2f, 0x53, 0x71, 0x75, 0x65, 0x65, 0x7a, 0x65, 0x3b, 0x3b,
  0x73, 0x65, 0x71, 0x75, 0x65, 0x6e, 0x74, 0x69, 0x61, 0x6c, 0x5f, 0x31,
  0x2f, 0x63, 0x6f, 0x6e, 0x76, 0x31, 0x64, 0x5f, 0x31, 0x2f, 0x63, 0x6f,
  0x6e, 0x76, 0x6f, 0x6c, 0x75, 0x74, 0x69, 0x6f, 0x6e, 0x00, 0x00, 0x00,
  0x04, 0x00, 0x00, 0x00, 0x01, 0x00, 0x00, 0x00, 0x01, 0x00, 0x00, 0x00,
  0xc9, 0x07, 0x00, 0x00, 0x08, 0x00, 0x00, 0x00, 0xca, 0xf2, 0xff, 0xff,
  0x00, 0x00, 0x00, 0x01, 0x18, 0x00, 0x00, 0x00, 0x28, 0x00, 0x00, 0x00,
  0x44, 0x00, 0x00, 0x00, 0x18, 0x00, 0x00, 0x00, 0x00, 0x00, 0x00, 0x09,
  0x6c, 0x00, 0x00, 0x00, 0x04, 0x00, 0x00, 0x00, 0xff, 0xff, 0xff, 0xff,
  0x01, 0x00, 0x00, 0x00, 0x40, 0x1f, 0x00, 0x00, 0x01, 0x00, 0x00, 0x00,
  0xbc, 0xf2, 0xff, 0xff, 0x08, 0x00, 0x00, 0x00, 0x10, 0x00, 0x00, 0x00,
  0x01, 0x00, 0x00, 0x00, 0x00, 0x00, 0x00, 0x00, 0x00, 0x00, 0x00, 0x00,
  0x01, 0x00, 0x00, 0x00, 0x00, 0x80, 0x00, 0x3c, 0x2c, 0x00, 0x00, 0x00,
  0x73, 0x65, 0x71, 0x75, 0x65, 0x6e, 0x74, 0x69, 0x61, 0x6c, 0x5f, 0x31,
  0x2f, 0x63, 0x6f, 0x6e, 0x76, 0x31, 0x64, 0x5f, 0x31, 0x2f, 0x63, 0x6f,
  0x6e, 0x76, 0x6f, 0x6c, 0x75, 0x74, 0x69, 0x6f, 0x6e, 0x2f, 0x45, 0x78,
  0x70, 0x61, 0x6e, 0x64, 0x44, 0x69, 0x6d, 0x73, 0x00, 0x00, 0x00, 0x00,
  0x04, 0x00, 0x00, 0x00, 0x01, 0x00, 0x00, 0x00, 0x01, 0x00, 0x00, 0x00,
  0x40, 0x1f, 0x00, 0x00, 0x01, 0x00, 0x00, 0x00, 0x66, 0xf3, 0xff, 0xff,
  0x00, 0x00, 0x00, 0x01, 0x18, 0x00, 0x00, 0x00, 0x24, 0x00, 0x00, 0x00,
  0x40, 0x00, 0x00, 0x00, 0x17, 0x00, 0x00, 0x00, 0x00, 0x00, 0x00, 0x09,
  0x58, 0x00, 0x00, 0x00, 0x03, 0x00, 0x00, 0x00, 0xff, 0xff, 0xff, 0xff,
  0x40, 0x1f, 0x00, 0x00, 0x01, 0x00, 0x00, 0x00, 0x54, 0xf3, 0xff, 0xff,
  0x08, 0x00, 0x00, 0x00, 0x10, 0x00, 0x00, 0x00, 0x01, 0x00, 0x00, 0x00,
  0x00, 0x00, 0x00, 0x00, 0x00, 0x00, 0x00, 0x00, 0x01, 0x00, 0x00, 0x00,
  0x00, 0x80, 0x00, 0x3c, 0x1e, 0x00, 0x00, 0x00, 0x73, 0x65, 0x71, 0x75,
  0x65, 0x6e, 0x74, 0x69, 0x61, 0x6c, 0x5f, 0x31, 0x2f, 0x72, 0x65, 0x73,
  0x68, 0x61, 0x70, 0x65, 0x5f, 0x31, 0x2f, 0x52, 0x65, 0x73, 0x68, 0x61,
  0x70, 0x65, 0x00, 0x00, 0x03, 0x00, 0x00, 0x00, 0x01, 0x00, 0x00, 0x00,
  0x40, 0x1f, 0x00, 0x00, 0x01, 0x00, 0x00, 0x00, 0x42, 0xf4, 0xff, 0xff,
  0x00, 0x00, 0x00, 0x01, 0x14, 0x00, 0x00, 0x00, 0x14, 0x00, 0x00, 0x00,
  0x16, 0x00, 0x00, 0x00, 0x00, 0x00, 0x00, 0x02, 0x34, 0x00, 0x00, 0x00,
  0x2c, 0xf4, 0xff, 0xff, 0x24, 0x00, 0x00, 0x00, 0x73, 0x65, 0x71, 0x75,
  0x65, 0x6e, 0x74, 0x69, 0x61, 0x6c, 0x5f, 0x31, 0x2f, 0x72, 0x65, 0x73,
  0x68, 0x61, 0x70, 0x65, 0x5f, 0x31, 0x2f, 0x52, 0x65, 0x73, 0x68, 0x61,
  0x70, 0x65, 0x2f, 0x73, 0x68, 0x61, 0x70, 0x65, 0x00, 0x00, 0x00, 0x00,
  0x01, 0x00, 0x00, 0x00, 0x03, 0x00, 0x00, 0x00, 0x96, 0xf4, 0xff, 0xff,
  0x00, 0x00, 0x00, 0x01, 0x14, 0x00, 0x00, 0x00, 0x14, 0x00, 0x00, 0x00,
  0x15, 0x00, 0x00, 0x00, 0x00, 0x00, 0x00, 0x02, 0x34, 0x00, 0x00, 0x00,
  0x80, 0xf4, 0xff, 0xff, 0x24, 0x00, 0x00, 0x00, 0x73, 0x65, 0x71, 0x75,
  0x65, 0x6e, 0x74, 0x69, 0x61, 0x6c, 0x5f, 0x31, 0x2f, 0x72, 0x65, 0x73,
  0x68, 0x61, 0x70, 0x65, 0x5f, 0x31, 0x2f, 0x73, 0x74, 0x72, 0x69, 0x64,
  0x65, 0x64, 0x5f, 0x73, 0x6c, 0x69, 0x63, 0x65, 0x00, 0x00, 0x00, 0x00,
  0x00, 0x00, 0x00, 0x00, 0xe6, 0xf4, 0xff, 0xff, 0x00, 0x00, 0x00, 0x01,
  0x14, 0x00, 0x00, 0x00, 0x14, 0x00, 0x00, 0x00, 0x14, 0x00, 0x00, 0x00,
  0x00, 0x00, 0x00, 0x02, 0x2c, 0x00, 0x00, 0x00, 0xd0, 0xf4, 0xff, 0xff,
  0x1c, 0x00, 0x00, 0x00, 0x73, 0x65, 0x71, 0x75, 0x65, 0x6e, 0x74, 0x69,
  0x61, 0x6c, 0x5f, 0x31, 0x2f, 0x72, 0x65, 0x73, 0x68, 0x61, 0x70, 0x65,
  0x5f, 0x31, 0x2f, 0x53, 0x68, 0x61, 0x70, 0x65, 0x00, 0x00, 0x00, 0x00,
  0x01, 0x00, 0x00, 0x00, 0x02, 0x00, 0x00, 0x00, 0x32, 0xf5, 0xff, 0xff,
  0x00, 0x00, 0x00, 0x01, 0x14, 0x00, 0x00, 0x00, 0x88, 0x00, 0x00, 0x00,
  0x13, 0x00, 0x00, 0x00, 0x00, 0x00, 0x00, 0x09, 0x94, 0x00, 0x00, 0x00,
  0xb4, 0xf4, 0xff, 0xff, 0x08, 0x00, 0x00, 0x00, 0x4c, 0x00, 0x00, 0x00,
  0x08, 0x00, 0x00, 0x00, 0x00, 0x00, 0x00, 0x00, 0x00, 0x00, 0x00, 0x00,
  0x00, 0x00, 0x00, 0x00, 0x00, 0x00, 0x00, 0x00, 0x00, 0x00, 0x00, 0x00,
  0x00, 0x00, 0x00, 0x00, 0x00, 0x00, 0x00, 0x00, 0x00, 0x00, 0x00, 0x00,
  0x00, 0x00, 0x00, 0x00, 0x00, 0x00, 0x00, 0x00, 0x00, 0x00, 0x00, 0x00,
  0x00, 0x00, 0x00, 0x00, 0x00, 0x00, 0x00, 0x00, 0x00, 0x00, 0x00, 0x00,
  0x00, 0x00, 0x00, 0x00, 0x00, 0x00, 0x00, 0x00, 0x00, 0x00, 0x00, 0x00,
  0x08, 0x00, 0x00, 0x00, 0x86, 0x56, 0x7a, 0x3b, 0xa3, 0x1c, 0x00, 0x3c,
  0xe2, 0x6b, 0x0c, 0x3c, 0x01, 0x9e, 0xd0, 0x3b, 0xc5, 0x8a, 0xd2, 0x3b,
  0x85, 0xed, 0xca, 0x3b, 0x83, 0xf9, 0xce, 0x3b, 0x27, 0x5e, 0xcf, 0x3b,
  0x12, 0x00, 0x00, 0x00, 0x74, 0x66, 0x6c, 0x2e, 0x70, 0x73, 0x65, 0x75,
  0x64, 0x6f, 0x5f, 0x71, 0x63, 0x6f, 0x6e, 0x73, 0x74, 0x37, 0x00, 0x00,
  0x04, 0x00, 0x00, 0x00, 0x08, 0x00, 0x00, 0x00, 0x01, 0x00, 0x00, 0x00,
  0x20, 0x00, 0x00, 0x00, 0x01, 0x00, 0x00, 0x00, 0xf2, 0xf5, 0xff, 0xff,
  0x00, 0x00, 0x00, 0x01, 0x14, 0x00, 0x00, 0x00, 0x84, 0x00, 0x00, 0x00,
  0x12, 0x00, 0x00, 0x00, 0x00, 0x00, 0x00, 0x02, 0x90, 0x00, 0x00, 0x00,
  0x74, 0xf5, 0xff, 0xff, 0x08, 0x00, 0x00, 0x00, 0x48, 0x00, 0x00, 0x00,
  0x08, 0x00, 0x00, 0x00, 0x00, 0x00, 0x00, 0x00, 0x00, 0x00, 0x00, 0x00,
  0x00, 0x00, 0x00, 0x00, 0x00, 0x00, 0x00, 0x00, 0x00, 0x00, 0x00, 0x00,
  0x00, 0x00, 0x00, 0x00, 0x00, 0x00, 0x00, 0x00, 0x00, 0x00, 0x00, 0x00,
  0x00, 0x00, 0x00, 0x00, 0x00, 0x00, 0x00, 0x00, 0x00, 0x00, 0x00, 0x00,
  0x00, 0x00, 0x00, 0x00, 0x00, 0x00, 0x00, 0x00, 0x00, 0x00, 0x00, 0x00,
  0x00, 0x00, 0x00, 0x00, 0x00, 0x00, 0x00, 0x00, 0x08, 0x00, 0x00, 0x00,
  0xdd, 0x50, 0xfb, 0x37, 0xc0, 0x9c, 0x80, 0x38, 0x4e, 0xf8, 0x8c, 0x38,
  0x9f, 0x6e, 0x51, 0x38, 0x50, 0x5d, 0x53, 0x38, 0x73, 0xb8, 0x4b, 0x38,
  0x7d, 0xc8, 0x4f, 0x38, 0x85, 0x2d, 0x50, 0x38, 0x12, 0x00, 0x00, 0x00,
  0x74, 0x66, 0x6c, 0x2e, 0x70, 0x73, 0x65, 0x75, 0x64, 0x6f, 0x5f, 0x71,
  0x63, 0x6f, 0x6e, 0x73, 0x74, 0x36, 0x00, 0x00, 0x01, 0x00, 0x00, 0x00,
  0x08, 0x00, 0x00, 0x00, 0xa2, 0xf6, 0xff, 0xff, 0x00, 0x00, 0x00, 0x01,
  0x14, 0x00, 0x00, 0x00, 0xe8, 0x00, 0x00, 0x00, 0x11, 0x00, 0x00, 0x00,
  0x00, 0x00, 0x00, 0x09, 0xf4, 0x00, 0x00, 0x00, 0x24, 0xf6, 0xff, 0xff,
  0x08, 0x00, 0x00, 0x00, 0x8c, 0x00, 0x00, 0x00, 0x10, 0x00, 0x00, 0x00,
  0x00, 0x00, 0x00, 0x00, 0x00, 0x00, 0x00, 0x00, 0x00, 0x00, 0x00, 0x00,
  0x00, 0x00, 0x00, 0x00, 0x00, 0x00, 0x00, 0x00, 0x00, 0x00, 0x00, 0x00,
  0x00, 0x00, 0x00, 0x00, 0x00, 0x00, 0x00, 0x00, 0x00, 0x00, 0x00, 0x00,
  0x00, 0x00, 0x00, 0x00, 0x00, 0x00, 0x00, 0x00, 0x00, 0x00, 0x00, 0x00,
  0x00, 0x00, 0x00, 0x00, 0x00, 0x00, 0x00, 0x00, 0x00, 0x00, 0x00, 0x00,
  0x00, 0x00, 0x00, 0x00, 0x00, 0x00, 0x00, 0x00, 0x00, 0x00, 0x00, 0x00,
  0x00, 0x00, 0x00, 0x00, 0x00, 0x00, 0x00, 0x00, 0x00, 0x00, 0x00, 0x00,
  0x00, 0x00, 0x00, 0x00, 0x00, 0x00, 0x00, 0x00, 0x00, 0x00, 0x00, 0x00,
  0x00, 0x00, 0x00, 0x00, 0x00, 0x00, 0x00, 0x00, 0x00, 0x00, 0x00, 0x00,
  0x00, 0x00, 0x00, 0x00, 0x00, 0x00, 0x00, 0x00, 0x00, 0x00, 0x00, 0x00,
  0x00, 0x00, 0x00, 0x00, 0x00, 0x00, 0x00, 0x00, 0x00, 0x00, 0x00, 0x00,
  0x10, 0x00, 0x00, 0x00, 0x2a, 0x0d, 0xfa, 0x3b, 0x18, 0x4d, 0x17, 0x3c,
  0xb0, 0xbf, 0xdc, 0x3b, 0x2b, 0x25, 0xec, 0x3b, 0xf2, 0xaa, 0xd0, 0x3b,
  0x66, 0x1b, 0x09, 0x3c, 0x67, 0xbe, 0xd3, 0x3b, 0x97, 0x0c, 0xd7, 0x3b,
  0xed, 0xf5, 0xa9, 0x3b, 0x33, 0xff, 0xa3, 0x3b, 0x9d, 0x79, 0x07, 0x3c,
  0x9a, 0xb1, 0xc8, 0x3b, 0x2b, 0xd6, 0x9d, 0x3b, 0xf6, 0x91, 0xe7, 0x3b,
  0x4d, 0xd5, 0x20, 0x3c, 0x71, 0x2e, 0xb9, 0x3b, 0x12, 0x00, 0x00, 0x00,
  0x74, 0x66, 0x6c, 0x2e, 0x70, 0x73, 0x65, 0x75, 0x64, 0x6f, 0x5f, 0x71,
  0x63, 0x6f, 0x6e, 0x73, 0x74, 0x35, 0x00, 0x00, 0x04, 0x00, 0x00, 0x00,
  0x10, 0x00, 0x00, 0x00, 0x01, 0x00, 0x00, 0x00, 0x10, 0x00, 0x00, 0x00,
  0x08, 0x00, 0x00, 0x00, 0xc2, 0xf7, 0xff, 0xff, 0x00, 0x00, 0x00, 0x01,
  0x14, 0x00, 0x00, 0x00, 0xe4, 0x00, 0x00, 0x00, 0x10, 0x00, 0x00, 0x00,
  0x00, 0x00, 0x00, 0x02, 0xf0, 0x00, 0x00, 0x00, 0x44, 0xf7, 0xff, 0xff,
  0x08, 0x00, 0x00, 0x00, 0x88, 0x00, 0x00, 0x00, 0x10, 0x00, 0x00, 0x00,
  0x00, 0x00, 0x00, 0x00, 0x00, 0x00, 0x00, 0x00, 0x00, 0x00, 0x00, 0x00,
  0x00, 0x00, 0x00, 0x00, 0x00, 0x00, 0x00, 0x00, 0x00, 0x00, 0x00, 0x00,
  0x00, 0x00, 0x00, 0x00, 0x00, 0x00, 0x00, 0x00, 0x00, 0x00, 0x00, 0x00,
  0x00, 0x00, 0x00, 0x00, 0x00, 0x00, 0x00, 0x00, 0x00, 0x00, 0x00, 0x00,
  0x00, 0x00, 0x00, 0x00, 0x00, 0x00, 0x00, 0x00, 0x00, 0x00, 0x00, 0x00,
  0x00, 0x00, 0x00, 0x00, 0x00, 0x00, 0x00, 0x00, 0x00, 0x00, 0x00, 0x00,
  0x00, 0x00, 0x00, 0x00, 0x00, 0x00, 0x00, 0x00, 0x00, 0x00, 0x00, 0x00,
  0x00, 0x00, 0x00, 0x00, 0x00, 0x00, 0x00, 0x00, 0x00, 0x00, 0x00, 0x00,
  0x00, 0x00, 0x00, 0x00, 0x00, 0x00, 0x00, 0x00, 0x00, 0x00, 0x00, 0x00,
  0x00, 0x00, 0x00, 0x00, 0x00, 0x00, 0x00, 0x00, 0x00, 0x00, 0x00, 0x00,
  0x00, 0x00, 0x00, 0x00, 0x00, 0x00, 0x00, 0x00, 0x10, 0x00, 0x00, 0x00,
  0x4e, 0x69, 0xee, 0x39, 0x0a, 0x42, 0x10, 0x3a, 0x07, 0x79, 0xd2, 0x39,
  0x07, 0x27, 0xe1, 0x39, 0x41, 0xf4, 0xc6, 0x39, 0x7f, 0xb9, 0x02, 0x3a,
  0x0e, 0xe3, 0xc9, 0x39, 0xda, 0x09, 0xcd, 0x39, 0x82, 0x0c, 0xa2, 0x39,
  0xda, 0x5c, 0x9c, 0x39, 0x28, 0x2b, 0x01, 0x3a, 0xf0, 0x59, 0xbf, 0x39,
  0x3b, 0x7d, 0x96, 0x39, 0x57, 0xca, 0xdc, 0x39, 0xa7, 0x58, 0x19, 0x3a,
  0xa3, 0x8f, 0xb0, 0x39, 0x12, 0x00, 0x00, 0x00, 0x74, 0x66, 0x6c, 0x2e,
  0x70, 0x73, 0x65, 0x75, 0x64, 0x6f, 0x5f, 0x71, 0x63, 0x6f, 0x6e, 0x73,
  0x74, 0x34, 0x00, 0x00, 0x01, 0x00, 0x00, 0x00, 0x10, 0x00, 0x00, 0x00,
  0xd2, 0xf8, 0xff, 0xff, 0x00, 0x00, 0x00, 0x01, 0x14, 0x00, 0x00, 0x00,
  0xa8, 0x01, 0x00, 0x00, 0x0f, 0x00, 0x00, 0x00, 0x00, 0x00, 0x00, 0x09,
  0xb4, 0x01, 0x00, 0x00, 0x54, 0xf8, 0xff, 0xff, 0x08, 0x00, 0x00, 0x00,
  0x0c, 0x01, 0x00, 0x00, 0x20, 0x00, 0x00, 0x00, 0x00, 0x00, 0x00, 0x00,
  0x00, 0x00, 0x00, 0x00, 0x00, 0x00, 0x00, 0x00, 0x00, 0x00, 0x00, 0x00,
  0x00, 0x00, 0x00, 0x00, 0x00, 0x00, 0x00, 0x00, 0x00, 0x00, 0x00, 0x00,
  0x00, 0x00, 0x00, 0x00, 0x00, 0x00, 0x00, 0x00, 0x00, 0x00, 0x00, 0x00,
  0x00, 0x00, 0x00, 0x00, 0x00, 0x00, 0x00, 0x00, 0x00, 0x00, 0x00, 0x00,
  0x00, 0x00, 0x00, 0x00, 0x00, 0x00, 0x00, 0x00, 0x00, 0x00, 0x00, 0x00,
  0x00, 0x00, 0x00, 0x00, 0x00, 0x00, 0x00, 0x00, 0x00, 0x00, 0x00, 0x00,
  0x00, 0x00, 0x00, 0x00, 0x00, 0x00, 0x00, 0x00, 0x00, 0x00, 0x00, 0x00,
  0x00, 0x00, 0x00, 0x00, 0x00, 0x00, 0x00, 0x00, 0x00, 0x00, 0x00, 0x00,
  0x00, 0x00, 0x00, 0x00, 0x00, 0x00, 0x00, 0x00, 0x00, 0x00, 0x00, 0x00,
  0x00, 0x00, 0x00, 0x00, 0x00, 0x00, 0x00, 0x00, 0x00, 0x00, 0x00, 0x00,
  0x00, 0x00, 0x00, 0x00, 0x00, 0x00, 0x00, 0x00, 0x00, 0x00, 0x00, 0x00,
  0x00, 0x00, 0x00, 0x00, 0x00, 0x00, 0x00, 0x00, 0x00, 0x00, 0x00, 0x00,
  0x00, 0x00, 0x00, 0x00, 0x00, 0x00, 0x00, 0x00, 0x00, 0x00, 0x00, 0x00,
  0x00, 0x00, 0x00, 0x00, 0x00, 0x00, 0x00, 0x00, 0x00, 0x00, 0x00, 0x00,
  0x00, 0x00, 0x00, 0x00, 0x00, 0x00, 0x00, 0x00, 0x00, 0x00, 0x00, 0x00,
  0x00, 0x00, 0x00, 0x00, 0x00, 0x00, 0x00, 0x00, 0x00, 0x00, 0x00, 0x00,
  0x00, 0x00, 0x00, 0x00, 0x00, 0x00, 0x00, 0x00, 0x00, 0x00, 0x00, 0x00,
  0x00, 0x00, 0x00, 0x00, 0x00, 0x00, 0x00, 0x00, 0x00, 0x00, 0x00, 0x00,
  0x00, 0x00, 0x00, 0x00, 0x00, 0x00, 0x00, 0x00, 0x00, 0x00, 0x00, 0x00,
  0x00, 0x00, 0x00, 0x00, 0x00, 0x00, 0x00, 0x00, 0x00, 0x00, 0x00, 0x00,
  0x00, 0x00, 0x00, 0x00, 0x00, 0x00, 0x00, 0x00, 0x00, 0x00, 0x00, 0x00,
  0x00, 0x00, 0x00, 0x00, 0x20, 0x00, 0x00, 0x00, 0x90, 0xaa, 0x8d, 0x3a,
  0x26, 0xf0, 0x6a, 0x3b, 0xcb, 0x3e, 0x8d, 0x3a, 0x4d, 0xcd, 0x91, 0x3a,
  0xf9, 0x21, 0xa0, 0x3a, 0x36, 0xd8, 0x28, 0x3c, 0xfd, 0x3f, 0xb8, 0x3b,
  0x02, 0x37, 0xc7, 0x3b, 0x45, 0xb6, 0xac, 0x3b, 0x3a, 0xa0, 0x9c, 0x3b,
  0x5f, 0xbc, 0xee, 0x3b, 0xf3, 0x73, 0x90, 0x3a, 0x2c, 0x1b, 0x3a, 0x3c,
  0xe5, 0xa1, 0x30, 0x3c, 0x29, 0x50, 0xae, 0x3b, 0x7e, 0xf8, 0xa2, 0x3a,
  0x44, 0x93, 0x9f, 0x3a, 0x29, 0x2f, 0x1c, 0x3c, 0x21, 0x5b, 0xd7, 0x3b,
  0x89, 0x95, 0xa2, 0x3a, 0x7a, 0x65, 0xb2, 0x3b, 0x25, 0xde, 0xda, 0x3b,
  0xd5, 0xb0, 0xff, 0x3b, 0x83, 0x18, 0x61, 0x3c, 0x39, 0x05, 0x34, 0x3b,
  0xf9, 0xd3, 0x7e, 0x3b, 0x32, 0xbd, 0x88, 0x3b, 0xe8, 0xa0, 0x87, 0x3b,
  0x41, 0xfd, 0x90, 0x3a, 0x02, 0x72, 0xde, 0x3b, 0x78, 0x9e, 0xad, 0x3a,
  0x43, 0x4d, 0x91, 0x3a, 0x12, 0x00, 0x00, 0x00, 0x74, 0x66, 0x6c, 0x2e,
  0x70, 0x73, 0x65, 0x75, 0x64, 0x6f, 0x5f, 0x71, 0x63, 0x6f, 0x6e, 0x73,
  0x74, 0x33, 0x00, 0x00, 0x04, 0x00, 0x00, 0x00, 0x20, 0x00, 0x00, 0x00,
  0x01, 0x00, 0x00, 0x00, 0x08, 0x00, 0x00, 0x00, 0x10, 0x00, 0x00, 0x00,
  0xb2, 0xfa, 0xff, 0xff, 0x00, 0x00, 0x00, 0x01, 0x14, 0x00, 0x00, 0x00,
  0xa4, 0x01, 0x00, 0x00, 0x0e, 0x00, 0x00, 0x00, 0x00, 0x00, 0x00, 0x02,
  0xb0, 0x01, 0x00, 0x00, 0x34, 0xfa, 0xff, 0xff, 0x08, 0x00, 0x00, 0x00,
  0x08, 0x01, 0x00, 0x00, 0x20, 0x00, 0x00, 0x00, 0x00, 0x00, 0x00, 0x00,
  0x00, 0x00, 0x00, 0x00, 0x00, 0x00, 0x00, 0x00, 0x00, 0x00, 0x00, 0x00,
  0x00, 0x00, 0x00, 0x00, 0x00, 0x00, 0x00, 0x00, 0x00, 0x00, 0x00, 0x00,
  0x00, 0x00, 0x00, 0x00, 0x00, 0x00, 0x00, 0x00, 0x00, 0x00, 0x00, 0x00,
  0x00, 0x00, 0x00, 0x00, 0x00, 0x00, 0x00, 0x00, 0x00, 0x00, 0x00, 0x00,
  0x00, 0x00, 0x00, 0x00, 0x00, 0x00, 0x00, 0x00, 0x00, 0x00, 0x00, 0x00,
  0x00, 0x00, 0x00, 0x00, 0x00, 0x00, 0x00, 0x00, 0x00, 0x00, 0x00, 0x00,
  0x00, 0x00, 0x00, 0x00, 0x00, 0x00, 0x00, 0x00, 0x00, 0x00, 0x00, 0x00,
  0x00, 0x00, 0x00, 0x00, 0x00, 0x00, 0x00, 0x00, 0x00, 0x00, 0x00, 0x00,
  0x00, 0x00, 0x00, 0x00, 0x00, 0x00, 0x00, 0x00, 0x00, 0x00, 0x00, 0x00,
  0x00, 0x00, 0x00, 0x00, 0x00, 0x00, 0x00, 0x00, 0x00, 0x00, 0x00, 0x00,
  0x00, 0x00, 0x00, 0x00, 0x00, 0x00, 0x00, 0x00, 0x00, 0x00, 0x00, 0x00,
  0x00, 0x00, 0x00, 0x00, 0x00, 0x00, 0x00, 0x00, 0x00, 0x00, 0x00, 0x00,
  0x00, 0x00, 0x00, 0x00, 0x00, 0x00, 0x00, 0x00, 0x00, 0x00, 0x00, 0x00,
  0x00, 0x00, 0x00, 0x00, 0x00, 0x00, 0x00, 0x00, 0x00, 0x00, 0x00, 0x00,
  0x00, 0x00, 0x00, 0x00, 0x00, 0x00, 0x00, 0x00, 0x00, 0x00, 0x00, 0x00,
  0x00, 0x00, 0x00, 0x00, 0x00, 0x00, 0x00, 0x00, 0x00, 0x00, 0x00, 0x00,
  0x00, 0x00, 0x00, 0x00, 0x00, 0x00, 0x00, 0x00, 0x00, 0x00, 0x00, 0x00,
  0x00, 0x00, 0x00, 0x00, 0x00, 0x00, 0x00, 0x00, 0x00, 0x00, 0x00, 0x00,
  0x00, 0x00, 0x00, 0x00, 0x00, 0x00, 0x00, 0x00, 0x00, 0x00, 0x00, 0x00,
  0x00, 0x00, 0x00, 0x00, 0x00, 0x00, 0x00, 0x00, 0x00, 0x00, 0x00, 0x00,
  0x00, 0x00, 0x00, 0x00, 0x00, 0x00, 0x00, 0x00, 0x00, 0x00, 0x00, 0x00,
  0x20, 0x00, 0x00, 0x00, 0xcd, 0x0e, 0x14, 0x3a, 0xac, 0x89, 0xf5, 0x3a,
  0x2c, 0x9e, 0x13, 0x3a, 0x4f, 0x61, 0x18, 0x3a, 0x80, 0x5b, 0x27, 0x3a,
  0x5c, 0x76, 0xb0, 0x3b, 0x11, 0x90, 0x40, 0x3b, 0xee, 0x33, 0x50, 0x3b,
  0x16, 0x81, 0x34, 0x3b, 0x40, 0xb1, 0x23, 0x3b, 0xc2, 0x81, 0x79, 0x3b,
  0x60, 0xf8, 0x16, 0x3a, 0xb1, 0x80, 0xc2, 0x3b, 0xfe, 0x99, 0xb8, 0x3b,
  0x78, 0x2d, 0x36, 0x3b, 0xcc, 0x52, 0x2a, 0x3a, 0x5a, 0xc6, 0x26, 0x3a,
  0x15, 0x3b, 0xa3, 0x3b, 0x7b, 0x12, 0x61, 0x3b, 0x60, 0xeb, 0x29, 0x3a,
  0xf3, 0x71, 0x3a, 0x3b, 0x0f, 0xbe, 0x64, 0x3b, 0x06, 0x9d, 0x85, 0x3b,
  0x5c, 0x40, 0xeb, 0x3b, 0x73, 0x24, 0xbc, 0x3a, 0x9d, 0x29, 0x05, 0x3b,
  0x87, 0xe8, 0x0e, 0x3b, 0x69, 0xbf, 0x0d, 0x3b, 0xe0, 0x87, 0x17, 0x3a,
  0x3e, 0x7b, 0x68, 0x3b, 0xc3, 0x73, 0x35, 0x3a, 0x7e, 0xdb, 0x17, 0x3a,
  0x12, 0x00, 0x00, 0x00, 0x74, 0x66, 0x6c, 0x2e, 0x70, 0x73, 0x65, 0x75,
  0x64, 0x6f, 0x5f, 0x71, 0x63, 0x6f, 0x6e, 0x73, 0x74, 0x32, 0x00, 0x00,
  0x01, 0x00, 0x00, 0x00, 0x20, 0x00, 0x00, 0x00, 0x82, 0xfc, 0xff, 0xff,
  0x00, 0x00, 0x00, 0x01, 0x14, 0x00, 0x00, 0x00, 0x88, 0x00, 0x00, 0x00,
  0x0d, 0x00, 0x00, 0x00, 0x00, 0x00, 0x00, 0x09, 0x94, 0x00, 0x00, 0x00,
  0x04, 0xfc, 0xff, 0xff, 0x08, 0x00, 0x00, 0x00, 0x4c, 0x00, 0x00, 0x00,
  0x08, 0x00, 0x00, 0x00, 0x00, 0x00, 0x00, 0x00, 0x00, 0x00, 0x00, 0x00,
  0x00, 0x00, 0x00, 0x00, 0x00, 0x00, 0x00, 0x00, 0x00, 0x00, 0x00, 0x00,
  0x00, 0x00, 0x00, 0x00, 0x00, 0x00, 0x00, 0x00, 0x00, 0x00, 0x00, 0x00,
  0x00, 0x00, 0x00, 0x00, 0x00, 0x00, 0x00, 0x00, 0x00, 0x00, 0x00, 0x00,
  0x00, 0x00, 0x00, 0x00, 0x00, 0x00, 0x00, 0x00, 0x00, 0x00, 0x00, 0x00,
  0x00, 0x00, 0x00, 0x00, 0x00, 0x00, 0x00, 0x00, 0x00, 0x00, 0x00, 0x00,
  0x08, 0x00, 0x00, 0x00, 0xd8, 0xcf, 0x49, 0x3c, 0x5c, 0x51, 0xa0, 0x3c,
  0xfe, 0x82, 0x03, 0x3c, 0xfb, 0x96, 0x4a, 0x3c, 0xc2, 0xdf, 0x81, 0x3c,
  0xb9, 0x8a, 0x50, 0x3c, 0x03, 0x43, 0x84, 0x3c, 0x55, 0xa2, 0xb6, 0x3c,
  0x12, 0x00, 0x00, 0x00, 0x74, 0x66, 0x6c, 0x2e, 0x70, 0x73, 0x65, 0x75,
  0x64, 0x6f, 0x5f, 0x71, 0x63, 0x6f, 0x6e, 0x73, 0x74, 0x31, 0x00, 0x00,
  0x02, 0x00, 0x00, 0x00, 0x08, 0x00, 0x00, 0x00, 0x20, 0x00, 0x00, 0x00,
  0x3a, 0xfd, 0xff, 0xff, 0x00, 0x00, 0x00, 0x01, 0x14, 0x00, 0x00, 0x00,
  0x88, 0x00, 0x00, 0x00, 0x0c, 0x00, 0x00, 0x00, 0x00, 0x00, 0x00, 0x02,
  0x94, 0x00, 0x00, 0x00, 0xbc, 0xfc, 0xff, 0xff, 0x08, 0x00, 0x00, 0x00,
  0x4c, 0x00, 0x00, 0x00, 0x08, 0x00, 0x00, 0x00, 0x00, 0x00, 0x00, 0x00,
  0x00, 0x00, 0x00, 0x00, 0x00, 0x00, 0x00, 0x00, 0x00, 0x00, 0x00, 0x00,
  0x00, 0x00, 0x00, 0x00, 0x00, 0x00, 0x00, 0x00, 0x00, 0x00, 0x00, 0x00,
  0x00, 0x00, 0x00, 0x00, 0x00, 0x00, 0x00, 0x00, 0x00, 0x00, 0x00, 0x00,
  0x00, 0x00, 0x00, 0x00, 0x00, 0x00, 0x00, 0x00, 0x00, 0x00, 0x00, 0x00,
  0x00, 0x00, 0x00, 0x00, 0x00, 0x00, 0x00, 0x00, 0x00, 0x00, 0x00, 0x00,
  0x00, 0x00, 0x00, 0x00, 0x08, 0x00, 0x00, 0x00, 0x81, 0x3a, 0x15, 0x3b,
  0x8d, 0x17, 0x6d, 0x3b, 0xb1, 0x7d, 0xc2, 0x3a, 0xc1, 0xcd, 0x15, 0x3b,
  0xb1, 0x11, 0x40, 0x3b, 0x7a, 0x34, 0x1a, 0x3b, 0xab, 0x99, 0x43, 0x3b,
  0x32, 0x0c, 0x87, 0x3b, 0x11, 0x00, 0x00, 0x00, 0x74, 0x66, 0x6c, 0x2e,
  0x70, 0x73, 0x65, 0x75, 0x64, 0x6f, 0x5f, 0x71, 0x63, 0x6f, 0x6e, 0x73,
  0x74, 0x00, 0x00, 0x00, 0x01, 0x00, 0x00, 0x00, 0x08, 0x00, 0x00, 0x00,
  0xee, 0xfd, 0xff, 0xff, 0x00, 0x00, 0x00, 0x01, 0x14, 0x00, 0x00, 0x00,
  0x14, 0x00, 0x00, 0x00, 0x0b, 0x00, 0x00, 0x00, 0x00, 0x00, 0x00, 0x02,
  0x1c, 0x00, 0x00, 0x00, 0xd8, 0xfd, 0xff, 0xff, 0x0f, 0x00, 0x00, 0x00,
  0x61, 0x72, 0x69, 0x74, 0x68, 0x2e, 0x63, 0x6f, 0x6e, 0x73, 0x74, 0x61,
  0x6e, 0x74, 0x39, 0x00, 0x01, 0x00, 0x00, 0x00, 0x03, 0x00, 0x00, 0x00,
  0x2a, 0xfe, 0xff, 0xff, 0x00, 0x00, 0x00, 0x01, 0x14, 0x00, 0x00, 0x00,
  0x14, 0x00, 0x00, 0x00, 0x0a, 0x00, 0x00, 0x00, 0x00, 0x00, 0x00, 0x02,
  0x1c, 0x00, 0x00, 0x00, 0x14, 0xfe, 0xff, 0xff, 0x0f, 0x00, 0x00, 0x00,
  0x61, 0x72, 0x69, 0x74, 0x68, 0x2e, 0x63, 0x6f, 0x6e, 0x73, 0x74, 0x61,
  0x6e, 0x74, 0x38, 0x00, 0x01, 0x00, 0x00, 0x00, 0x03, 0x00, 0x00, 0x00,
  0x66, 0xfe, 0xff, 0xff, 0x00, 0x00, 0x00, 0x01, 0x14, 0x00, 0x00, 0x00,
  0x14, 0x00, 0x00, 0x00, 0x09, 0x00, 0x00, 0x00, 0x00, 0x00, 0x00, 0x02,
  0x1c, 0x00, 0x00, 0x00, 0x50, 0xfe, 0xff, 0xff, 0x0f, 0x00, 0x00, 0x00,
  0x61, 0x72, 0x69, 0x74, 0x68, 0x2e, 0x63, 0x6f, 0x6e, 0x73, 0x74, 0x61,
  0x6e, 0x74, 0x37, 0x00, 0x01, 0x00, 0x00, 0x00, 0x03, 0x00, 0x00, 0x00,
  0xa2, 0xfe, 0xff, 0xff, 0x00, 0x00, 0x00, 0x01, 0x14, 0x00, 0x00, 0x00,
  0x14, 0x00, 0x00, 0x00, 0x08, 0x00, 0x00, 0x00, 0x00, 0x00, 0x00, 0x02,
  0x1c, 0x00, 0x00, 0x00, 0x8c, 0xfe, 0xff, 0xff, 0x0f, 0x00, 0x00, 0x00,
  0x61, 0x72, 0x69, 0x74, 0x68, 0x2e, 0x63, 0x6f, 0x6e, 0x73, 0x74, 0x61,
  0x6e, 0x74, 0x36, 0x00, 0x01, 0x00, 0x00, 0x00, 0x03, 0x00, 0x00, 0x00,
  0xde, 0xfe, 0xff, 0xff, 0x00, 0x00, 0x00, 0x01, 0x14, 0x00, 0x00, 0x00,
  0x14, 0x00, 0x00, 0x00, 0x07, 0x00, 0x00, 0x00, 0x00, 0x00, 0x00, 0x02,
  0x1c, 0x00, 0x00, 0x00, 0xc8, 0xfe, 0xff, 0xff, 0x0f, 0x00, 0x00, 0x00,
  0x61, 0x72, 0x69, 0x74, 0x68, 0x2e, 0x63, 0x6f, 0x6e, 0x73, 0x74, 0x61,
  0x6e, 0x74, 0x35, 0x00, 0x01, 0x00, 0x00, 0x00, 0x03, 0x00, 0x00, 0x00,
  0x1a, 0xff, 0xff, 0xff, 0x00, 0x00, 0x00, 0x01, 0x14, 0x00, 0x00, 0x00,
  0x14, 0x00, 0x00, 0x00, 0x06, 0x00, 0x00, 0x00, 0x00, 0x00, 0x00, 0x02,
  0x1c, 0x00, 0x00, 0x00, 0x04, 0xff, 0xff, 0xff, 0x0f, 0x00, 0x00, 0x00,
  0x61, 0x72, 0x69, 0x74, 0x68, 0x2e, 0x63, 0x6f, 0x6e, 0x73, 0x74, 0x61,
  0x6e, 0x74, 0x34, 0x00, 0x00, 0x00, 0x00, 0x00, 0x52, 0xff, 0xff, 0xff,
  0x00, 0x00, 0x00, 0x01, 0x14, 0x00, 0x00, 0x00, 0x14, 0x00, 0x00, 0x00,
  0x03, 0x00, 0x00, 0x00, 0x00, 0x00, 0x00, 0x02, 0x1c, 0x00, 0x00, 0x00,
  0x3c, 0xff, 0xff, 0xff, 0x0f, 0x00, 0x00, 0x00, 0x61, 0x72, 0x69, 0x74,
  0x68, 0x2e, 0x63, 0x6f, 0x6e, 0x73, 0x74, 0x61, 0x6e, 0x74, 0x33, 0x00,
  0x00, 0x00, 0x00, 0x00, 0x8a, 0xff, 0xff, 0xff, 0x00, 0x00, 0x00, 0x01,
  0x14, 0x00, 0x00, 0x00, 0x14, 0x00, 0x00, 0x00, 0x04, 0x00, 0x00, 0x00,
  0x00, 0x00, 0x00, 0x02, 0x1c, 0x00, 0x00, 0x00, 0x74, 0xff, 0xff, 0xff,
  0x0f, 0x00, 0x00, 0x00, 0x61, 0x72, 0x69, 0x74, 0x68, 0x2e, 0x63, 0x6f,
  0x6e, 0x73, 0x74, 0x61, 0x6e, 0x74, 0x32, 0x00, 0x00, 0x00, 0x00, 0x00,
  0xc2, 0xff, 0xff, 0xff, 0x00, 0x00, 0x00, 0x01, 0x14, 0x00, 0x00, 0x00,
  0x14, 0x00, 0x00, 0x00, 0x03, 0x00, 0x00, 0x00, 0x00, 0x00, 0x00, 0x02,
  0x1c, 0x00, 0x00, 0x00, 0xac, 0xff, 0xff, 0xff, 0x0f, 0x00, 0x00, 0x00,
  0x61, 0x72, 0x69, 0x74, 0x68, 0x2e, 0x63, 0x6f, 0x6e, 0x73, 0x74, 0x61,
  0x6e, 0x74, 0x31, 0x00, 0x01, 0x00, 0x00, 0x00, 0x01, 0x00, 0x00, 0x00,
  0x00, 0x00, 0x16, 0x00, 0x1c, 0x00, 0x18, 0x00, 0x17, 0x00, 0x10, 0x00,
  0x0c, 0x00, 0x08, 0x00, 0x00, 0x00, 0x00, 0x00, 0x00, 0x00, 0x07, 0x00,
  0x16, 0x00, 0x00, 0x00, 0x00, 0x00, 0x00, 0x01, 0x18, 0x00, 0x00, 0x00,
  0x18, 0x00, 0x00, 0x00, 0x02, 0x00, 0x00, 0x00, 0x00, 0x00, 0x00, 0x02,
  0x20, 0x00, 0x00, 0x00, 0x04, 0x00, 0x04, 0x00, 0x04, 0x00, 0x00, 0x00,
  0x0e, 0x00, 0x00, 0x00, 0x61, 0x72, 0x69, 0x74, 0x68, 0x2e, 0x63, 0x6f,
  0x6e, 0x73, 0x74, 0x61, 0x6e, 0x74, 0x00, 0x00, 0x01, 0x00, 0x00, 0x00,
  0x01, 0x00, 0x00, 0x00, 0x00, 0x00, 0x16, 0x00, 0x20, 0x00, 0x1c, 0x00,
  0x1b, 0x00, 0x14, 0x00, 0x10, 0x00, 0x0c, 0x00, 0x00, 0x00, 0x00, 0x00,
  0x08, 0x00, 0x07, 0x00, 0x16, 0x00, 0x00, 0x00, 0x00, 0x00, 0x00, 0x01,
  0x18, 0x00, 0x00, 0x00, 0x2c, 0x00, 0x00, 0x00, 0x48, 0x00, 0x00, 0x00,
  0x01, 0x00, 0x00, 0x00, 0x00, 0x00, 0x00, 0x09, 0x60, 0x00, 0x00, 0x00,
  0x02, 0x00, 0x00, 0x00, 0xff, 0xff, 0xff, 0xff, 0x40, 0x1f, 0x00, 0x00,
  0x0c, 0x00, 0x0c, 0x00, 0x00, 0x00, 0x00, 0x00, 0x08, 0x00, 0x04, 0x00,
  0x0c, 0x00, 0x00, 0x00, 0x08, 0x00, 0x00, 0x00, 0x10, 0x00, 0x00, 0x00,
  0x01, 0x00, 0x00, 0x00, 0x00, 0x00, 0x00, 0x00, 0x00, 0x00, 0x00, 0x00,
  0x01, 0x00, 0x00, 0x00, 0x00, 0x80, 0x00, 0x3c, 0x1e, 0x00, 0x00, 0x00,
  0x73, 0x65, 0x72, 0x76, 0x69, 0x6e, 0x67, 0x5f, 0x64, 0x65, 0x66, 0x61,
  0x75, 0x6c, 0x74, 0x5f, 0x6b, 0x65, 0x72, 0x61, 0x73, 0x5f, 0x74, 0x65,
  0x6e, 0x73, 0x6f, 0x72, 0x3a, 0x30, 0x00, 0x00, 0x02, 0x00, 0x00, 0x00,
  0x01, 0x00, 0x00, 0x00, 0x40, 0x1f, 0x00, 0x00, 0x0a, 0x00, 0x00, 0x00,
  0xc0, 0x00, 0x00, 0x00, 0xa4, 0x00, 0x00, 0x00, 0x94, 0x00, 0x00, 0x00,
  0x84, 0x00, 0x00, 0x00, 0x74, 0x00, 0x00, 0x00, 0x60, 0x00, 0x00, 0x00,
  0x40, 0x00, 0x00, 0x00, 0x2c, 0x00, 0x00, 0x00, 0x18, 0x00, 0x00, 0x00,
  0x04, 0x00, 0x00, 0x00, 0xc0, 0xff, 0xff, 0xff, 0x19, 0x00, 0x00, 0x00,
  0x02, 0x00, 0x00, 0x00, 0x00, 0x00, 0x00, 0x19, 0xd0, 0xff, 0xff, 0xff,
  0x09, 0x00, 0x00, 0x00, 0x04, 0x00, 0x00, 0x00, 0x00, 0x00, 0x00, 0x09,
  0xe0, 0xff, 0xff, 0xff, 0x28, 0x00, 0x00, 0x00, 0x02, 0x00, 0x00, 0x00,
  0x00, 0x00, 0x00, 0x28, 0xf0, 0xff, 0xff, 0xff, 0x11, 0x00, 0x00, 0x00,
  0x02, 0x00, 0x00, 0x00, 0x00, 0x00, 0x00, 0x11, 0x0c, 0x00, 0x10, 0x00,
  0x0f, 0x00, 0x00, 0x00, 0x08, 0x00, 0x04, 0x00, 0x0c, 0x00, 0x00, 0x00,
  0x03, 0x00, 0x00, 0x00, 0x03, 0x00, 0x00, 0x00, 0x00, 0x00, 0x00, 0x03,
  0xd0, 0xff, 0xff, 0xff, 0x46, 0x00, 0x00, 0x00, 0x00, 0x00, 0x00, 0x46,
  0xdc, 0xff, 0xff, 0xff, 0x16, 0x00, 0x00, 0x00, 0x00, 0x00, 0x00, 0x16,
